<unk>	0
<s>	0
</s>	0
,	-3.01435
▁	-3.51493
.	-3.80791
s	-3.88555
▁the	-4.05113
的	-4.1527
。	-4.28053
▁to	-4.50113
'	-4.52602
▁of	-4.6008
▁a	-4.61929
▁and	-4.67579
▁that	-4.84707
▁I	-4.91464
▁in	-4.95816
▁is	-5.18973
▁you	-5.21799
▁it	-5.24511
▁we	-5.31594
t	-5.41993
了	-5.57288
▁And	-5.57537
▁this	-5.62326
?	-5.68441
在	-5.7429
是	-5.75634
ing	-5.88592
re	-5.88958
▁was	-5.91321
▁for	-5.96467
ed	-5.96488
d	-5.9667
我	-6.01238
▁are	-6.02592
:	-6.03331
▁have	-6.0349
▁--	-6.08183
▁they	-6.08647
▁on	-6.09627
和	-6.1113
-	-6.11299
我们	-6.13307
▁with	-6.14912
▁can	-6.18166
▁So	-6.22016
▁我	-6.22045
▁be	-6.23124
▁what	-6.26406
▁about	-6.29144
有	-6.32001
上	-6.3955
m	-6.40215
▁我们	-6.40595
▁not	-6.42567
▁do	-6.43502
▁at	-6.44125
▁all	-6.45606
▁"	-6.46667
▁as	-6.49412
你	-6.49755
▁so	-6.51623
不	-6.53901
▁there	-6.54634
▁my	-6.56044
▁like	-6.5659
▁one	-6.56599
▁people	-6.56955
人	-6.57504
一个	-6.58789
▁It	-6.59429
ly	-6.6008
▁from	-6.61532
中	-6.65167
▁an	-6.6547
▁but	-6.66564
ve	-6.70957
说	-6.71805
▁me	-6.72292
他们	-6.72879
▁our	-6.73859
▁just	-6.74597
▁or	-6.74693
到	-6.75573
▁We	-6.76342
会	-6.77526
y	-6.77691
一	-6.78693
▁out	-6.78843
n	-6.79782
er	-6.80232
▁But	-6.81154
▁在	-6.81965
▁know	-6.83125
▁these	-6.8322
▁if	-6.8333
▁up	-6.85433
▁very	-6.86521
▁The	-6.86692
▁he	-6.87782
e	-6.88798
这个	-6.89463
▁by	-6.90618
al	-6.91117
▁them	-6.91334
▁going	-6.91345
地	-6.91916
这	-6.92784
这些	-6.93619
▁when	-6.94568
▁had	-6.95226
用	-6.962
▁more	-6.96278
▁because	-6.96279
▁see	-6.96956
里	-6.97609
来	-6.98409
▁who	-6.99747
▁think	-6.99828
▁他们	-7.0326
时	-7.03283
▁were	-7.0413
▁their	-7.05259
▁which	-7.0529
▁your	-7.05759
”	-7.06563
它	-7.06594
对	-7.06625
▁would	-7.0695
▁how	-7.07128
他	-7.07363
▁这	-7.07638
被	-7.07655
▁really	-7.07952
▁get	-7.08414
大	-7.10099
."	-7.10302
▁us	-7.12715
ll	-7.13731
、	-7.15534
去	-7.15617
c	-7.17454
▁time	-7.17656
“	-7.17658
就	-7.18621
▁world	-7.19514
▁has	-7.199
▁here	-7.20336
很	-7.20602
o	-7.20647
年	-7.23082
能	-7.23323
从	-7.23624
▁then	-7.23742
▁但	-7.23865
▁This	-7.2425
为	-7.2428
▁some	-7.24836
都	-7.25289
es	-7.25583
▁don	-7.25842
着	-7.25926
▁You	-7.26048
可以	-7.26173
▁into	-7.26514
▁actually	-7.27782
▁will	-7.28206
▁way	-7.28355
▁你	-7.28395
出	-7.29161
▁go	-7.29642
也	-7.29744
想	-7.30623
▁want	-7.30654
▁where	-7.31193
▁years	-7.33459
▁所以	-7.33611
▁other	-7.34533
▁things	-7.34922
▁now	-7.35168
下	-7.37244
▁Now	-7.37555
r	-7.37928
▁但是	-7.37959
▁could	-7.38474
把	-7.38493
l	-7.38593
开始	-7.38859
▁make	-7.39375
▁They	-7.40753
▁been	-7.41493
要	-7.41505
子	-7.41816
a	-7.43193
做	-7.4374
▁他	-7.4452
性	-7.4476
过	-7.46131
p	-7.47377
▁right	-7.48186
▁它	-7.48519
▁no	-7.49063
▁said	-7.49495
没有	-7.49777
in	-7.50531
的人	-7.5144
▁因为	-7.51514
将	-7.51978
就是	-7.52112
▁something	-7.5235
好	-7.53105
▁over	-7.5327
▁而	-7.53978
个	-7.54002
于	-7.55329
▁than	-7.55914
一些	-7.56084
le	-7.56135
多	-7.56328
▁those	-7.56722
▁two	-7.57278
看	-7.57587
▁first	-7.58435
与	-7.58807
▁back	-7.59247
▁这是	-7.59522
所	-7.59758
者	-7.60212
▁A	-7.60726
u	-7.60831
▁also	-7.61081
▁thing	-7.61151
▁got	-7.62715
▁In	-7.63627
▁little	-7.63858
▁much	-7.63898
▁work	-7.63963
;	-7.64255
▁look	-7.64428
▁even	-7.64495
or	-7.64636
ic	-7.65539
得	-7.6623
▁“	-7.66528
非常	-7.66962
▁say	-7.66967
的时候	-7.67032
▁she	-7.67222
▁♫	-7.67854
——	-7.67948
你们	-7.67967
更	-7.68088
i	-7.68321
最	-7.68564
▁need	-7.69009
小	-7.6907
th	-7.6911
b	-7.69218
▁That	-7.69317
那些	-7.69333
"	-7.70412
后	-7.70607
en	-7.71358
▁his	-7.71719
它们	-7.71809
需要	-7.71844
▁life	-7.72596
▁only	-7.72752
呢	-7.72852
it	-7.73064
她	-7.73486
ur	-7.73856
▁most	-7.74079
那	-7.75304
问题	-7.75463
水	-7.76963
点	-7.77092
自己	-7.7739
▁take	-7.77876
▁kind	-7.78218
▁lot	-7.78506
而	-7.7855
天	-7.79193
▁many	-7.79571
g	-7.80004
ation	-7.80306
工作	-7.80312
我的	-7.80456
ri	-7.80822
k	-7.81876
比	-7.82051
il	-7.82073
可	-7.82262
▁new	-7.82538
▁good	-7.83978
▁S	-7.84749
▁然后	-7.84865
an	-7.8491
▁did	-7.84989
--	-7.85004
已经	-7.85153
▁around	-7.85419
。”	-7.85796
▁down	-7.85889
▁是	-7.86009
手	-7.86257
▁different	-7.86322
ro	-7.86653
现在	-7.86762
斯	-7.87694
▁What	-7.87977
ar	-7.88123
▁There	-7.88246
一种	-7.88305
▁her	-7.88457
知道	-7.88707
ion	-7.89524
▁He	-7.90039
向	-7.90789
长	-7.90792
▁use	-7.91012
研究	-7.91245
ra	-7.91751
▁这些	-7.91875
无	-7.92079
ers	-7.92862
人们	-7.92918
S	-7.9293
▁现在	-7.93182
la	-7.93316
给	-7.93546
世界	-7.93775
生	-7.93917
▁being	-7.94047
f	-7.94424
高	-7.94764
▁de	-7.94823
家	-7.94892
▁come	-7.94931
▁through	-7.94959
前	-7.95031
什么	-7.9506
还	-7.95521
一样	-7.95672
▁same	-7.96391
▁every	-7.97087
这种	-7.97697
起	-7.97756
▁这个	-7.98124
我们的	-7.98923
们	-7.98967
A	-7.99077
的是	-7.99379
吗	-7.99395
尔	-7.99462
体	-8.00359
之	-8.00462
特	-8.00745
力	-8.00777
ive	-8.01031
不是	-8.02088
▁put	-8.02188
!	-8.02595
头	-8.03503
▁p	-8.03522
心	-8.03863
h	-8.03873
ne	-8.04224
看到	-8.04474
▁doing	-8.049
使用	-8.05136
▁day	-8.05178
el	-8.05196
成	-8.05467
当	-8.05744
像	-8.06009
▁three	-8.06241
开	-8.07347
让	-8.07636
▁tell	-8.07925
可能	-8.08479
▁percent	-8.08698
se	-8.08918
▁If	-8.08981
I	-8.0908
·	-8.09317
发现	-8.10289
分	-8.10576
te	-8.10902
以	-8.1125
▁和	-8.11487
你的	-8.11546
学	-8.1188
▁well	-8.11907
▁而且	-8.11983
发	-8.12108
li	-8.12109
新	-8.12295
▁called	-8.12403
化	-8.12508
▁any	-8.12568
ch	-8.13393
很多	-8.13591
问	-8.13784
面	-8.13922
▁B	-8.1414
国家	-8.14148
改变	-8.14626
进行	-8.14767
▁human	-8.14804
只	-8.15641
▁find	-8.16467
▁made	-8.16482
▁fact	-8.16718
事	-8.17219
系统	-8.17249
人类	-8.17507
us	-8.17574
3	-8.17767
又	-8.17836
▁如果	-8.18047
C	-8.1806
▁Well	-8.18128
行	-8.18186
▁C	-8.18228
时间	-8.18517
两	-8.18572
认为	-8.1918
▁talk	-8.19526
光	-8.1954
是一个	-8.1961
▁own	-8.19644
再	-8.19872
et	-8.20336
▁should	-8.20619
▁E	-8.20964
▁change	-8.21073
▁year	-8.21091
on	-8.21573
▁why	-8.21641
车	-8.21924
▁part	-8.22215
ent	-8.22298
▁有	-8.22447
技术	-8.23237
?"	-8.23388
▁start	-8.23665
种	-8.24451
线	-8.2469
▁didn	-8.24706
able	-8.24954
▁great	-8.25358
正	-8.25643
或	-8.25747
▁let	-8.25785
▁after	-8.26009
▁idea	-8.26343
海	-8.26524
▁today	-8.26581
拉	-8.26601
那个	-8.2661
正在	-8.26963
▁started	-8.2698
▁它们	-8.27043
ity	-8.2713
这样	-8.2722
▁thought	-8.27275
▁G	-8.27427
如何	-8.27446
道	-8.27617
内	-8.27716
只是	-8.27787
跟	-8.27904
▁F	-8.27925
▁从	-8.27947
这是	-8.28404
5	-8.2844
ment	-8.28679
ce	-8.28837
能够	-8.28876
动	-8.29044
▁last	-8.29623
▁她	-8.29645
w	-8.30095
at	-8.30282
▁brain	-8.30813
▁un	-8.31217
都是	-8.31335
ck	-8.31466
外	-8.31653
2	-8.31656
数	-8.32576
三	-8.32885
est	-8.32961
不会	-8.33013
▁off	-8.3307
7	-8.33073
▁一个	-8.33482
的东西	-8.33547
▁went	-8.33693
ate	-8.3391
▁give	-8.34222
▁better	-8.34233
克	-8.34286
▁might	-8.34362
▁那	-8.3453
带	-8.34568
▁bit	-8.34597
▁big	-8.3464
un	-8.34674
ir	-8.34696
▁problem	-8.34747
其他	-8.34791
▁system	-8.35156
▁before	-8.35206
▁如果你	-8.35339
社会	-8.35533
▁并且	-8.35665
D	-8.3571
没	-8.35777
▁important	-8.35802
▁P	-8.35849
▁course	-8.3606
ta	-8.36264
▁another	-8.36633
ter	-8.36889
▁来	-8.3708
▁never	-8.37087
任何	-8.37123
im	-8.37299
公司	-8.37543
▁point	-8.37716
得到	-8.379
加	-8.38204
完全	-8.38426
真的	-8.38656
自	-8.38808
▁con	-8.38923
▁place	-8.3901
度	-8.39072
因为	-8.39291
通过	-8.39415
ies	-8.39559
▁show	-8.39714
这样的	-8.40156
ma	-8.40187
▁still	-8.40399
1	-8.4092
设计	-8.41246
ho	-8.41285
▁able	-8.41494
)	-8.41556
▁together	-8.41556
中的	-8.41559
▁end	-8.41625
一下	-8.41909
量	-8.41909
▁few	-8.41911
▁我想	-8.42476
▁water	-8.42699
▁因此	-8.42737
▁那么	-8.42756
▁him	-8.42819
孩子	-8.42829
万	-8.42848
美国	-8.42869
sh	-8.42896
▁long	-8.43001
▁came	-8.43089
不同	-8.43383
▁story	-8.43387
不能	-8.43642
vi	-8.43743
▁19	-8.43873
▁ago	-8.43945
路	-8.44102
走	-8.44147
名	-8.44409
age	-8.44488
之后	-8.44832
▁call	-8.44958
东西	-8.45013
▁next	-8.45023
x	-8.45366
ul	-8.45394
爱	-8.4558
他们的	-8.45777
B	-8.45968
来说	-8.46257
▁sort	-8.46326
物	-8.4681
▁design	-8.46979
写	-8.47599
或者	-8.47632
▁c	-8.47648
▁当	-8.47787
重	-8.47915
▁again	-8.48098
▁real	-8.481
M	-8.48194
电	-8.48385
吧	-8.48617
所有	-8.4862
讲	-8.48932
▁mean	-8.49005
▁found	-8.49183
▁20	-8.49249
作	-8.4938
发展	-8.4955
的地方	-8.49754
id	-8.49892
并	-8.49926
机	-8.49927
打	-8.50106
其	-8.50158
▁co	-8.50193
4	-8.50209
▁并	-8.50308
ist	-8.50321
希望	-8.50345
决定	-8.50439
成为	-8.50584
却	-8.50645
▁does	-8.50754
▁question	-8.5081
▁between	-8.50814
太	-8.51046
▁When	-8.51146
▁each	-8.51201
▁used	-8.5156
T	-8.51571
城市	-8.51815
利	-8.51816
入	-8.51965
听	-8.52022
图	-8.52097
▁f	-8.52112
▁love	-8.52208
,"	-8.52294
本	-8.52476
▁T	-8.52608
还是	-8.53026
▁data	-8.53062
▁technology	-8.53172
马	-8.53338
自己的	-8.53851
P	-8.54213
▁或者	-8.54301
▁help	-8.54484
信息	-8.5468
ge	-8.55059
:“	-8.55077
次	-8.55125
ol	-8.55147
6	-8.55181
▁就是	-8.55237
▁believe	-8.55364
实	-8.55555
意	-8.55712
存在	-8.55718
器	-8.55796
的问题	-8.55948
▁example	-8.56276
关于	-8.56554
▁women	-8.56559
is	-8.5661
起来	-8.56677
科学	-8.56818
选择	-8.5686
▁live	-8.56887
法	-8.5703
应该	-8.57067
▁K	-8.57172
▁feel	-8.57248
他的	-8.57363
de	-8.57581
▁too	-8.57639
书	-8.57747
▁looking	-8.57963
▁understand	-8.58051
▁four	-8.58083
不同的	-8.58148
事情	-8.58366
使	-8.58701
lo	-8.58738
▁10	-8.58774
ia	-8.58794
喜欢	-8.5881
▁R	-8.58907
回	-8.59031
并不	-8.59092
国	-8.59298
变	-8.5954
▁home	-8.59562
ry	-8.59741
▁doesn	-8.60044
一起	-8.60122
如果	-8.60687
部	-8.60743
大家	-8.60957
▁done	-8.61109
气	-8.61214
▁wanted	-8.61226
组织	-8.6128
8	-8.61305
整个	-8.61405
9	-8.61505
同	-8.61509
▁Because	-8.61595
上的	-8.61703
▁light	-8.61809
花	-8.62097
等	-8.62337
有一个	-8.62409
四	-8.62655
叫	-8.62733
十	-8.62738
na	-8.62831
之前	-8.62901
数据	-8.62904
ness	-8.62952
了解	-8.63018
帮助	-8.63238
▁whole	-8.63265
pe	-8.63434
场	-8.6344
才	-8.63453
经济	-8.63498
▁second	-8.63704
▁还有	-8.63735
▁space	-8.63781
生活	-8.63806
▁person	-8.6386
放	-8.64041
▁ever	-8.64096
▁man	-8.64218
▁你们	-8.64379
拥有	-8.64387
受	-8.64408
方	-8.64433
▁million	-8.64674
德	-8.64868
20	-8.64903
为什么	-8.65271
但	-8.65339
主	-8.65379
老	-8.65616
ine	-8.65644
我想	-8.65779
的话	-8.65943
▁car	-8.66001
▁create	-8.66087
▁school	-8.66242
地方	-8.66704
▁以及	-8.66785
钱	-8.66831
ha	-8.66929
▁trying	-8.67002
▁U	-8.67015
▁may	-8.67192
▁st	-8.6731
▁dis	-8.67339
格	-8.67786
▁high	-8.678
流	-8.67815
▁power	-8.67852
mo	-8.6796
▁always	-8.68184
到了	-8.68234
来自	-8.6833
这里	-8.68337
了一个	-8.68346
发生	-8.68588
▁try	-8.68769
▁children	-8.68809
▁away	-8.68856
一次	-8.6897
▁hard	-8.68988
政府	-8.69145
极	-8.69191
ad	-8.69343
▁pro	-8.69489
的事情	-8.69596
生物	-8.69739
觉得	-8.69747
▁working	-8.69768
ant	-8.69813
▁form	-8.69971
▁building	-8.69993
教	-8.69994
一直	-8.70106
ty	-8.70389
片	-8.70638
?”	-8.70661
to	-8.70722
▁就	-8.70852
▁country	-8.70927
全	-8.71204
感	-8.71298
先	-8.71317
解决	-8.71344
um	-8.71508
制	-8.71641
理	-8.71785
▁open	-8.71796
身	-8.7198
卡	-8.72204
无法	-8.72363
,“	-8.72508
动物	-8.72543
ti	-8.72761
po	-8.72925
是个	-8.72967
间	-8.73122
一点	-8.7323
进	-8.7388
环境	-8.74125
由	-8.74393
理解	-8.74428
位	-8.74689
还有	-8.74786
布	-8.74796
方式	-8.74843
就会	-8.74857
出来	-8.75221
网络	-8.75238
▁How	-8.75266
怎么	-8.75648
画	-8.75683
no	-8.75701
日	-8.75775
这一	-8.76009
口	-8.7603
me	-8.76153
as	-8.76277
R	-8.76372
▁experience	-8.76576
ca	-8.76794
创造	-8.76909
▁using	-8.77037
E	-8.77204
▁对	-8.77293
▁small	-8.77449
▁hand	-8.77468
▁information	-8.77622
▁money	-8.77624
的方式	-8.77625
教育	-8.7783
▁took	-8.77863
细胞	-8.77918
相信	-8.78092
ian	-8.78246
月	-8.78368
真	-8.78386
▁thinking	-8.78394
ver	-8.78403
ting	-8.78445
▁number	-8.78514
方面	-8.78611
▁become	-8.78644
处	-8.78647
如此	-8.78802
▁means	-8.78993
相	-8.79031
▁five	-8.79104
所有的	-8.79139
学习	-8.79193
▁maybe	-8.79197
▁moment	-8.79287
ut	-8.79373
tic	-8.79381
▁For	-8.79424
边	-8.79455
总	-8.79506
故事	-8.79541
想要	-8.79604
▁old	-8.79767
定	-8.79788
▁也	-8.79851
min	-8.7995
找到	-8.80087
▁pre	-8.80102
▁J	-8.80127
转	-8.80284
美	-8.80291
▁sense	-8.80325
L	-8.80338
▁everything	-8.80382
每	-8.80407
病	-8.80504
非	-8.80519
指	-8.80624
新的	-8.80697
产生	-8.80711
信	-8.8092
▁process	-8.81084
▁Mo	-8.81114
如果你	-8.81184
此	-8.81741
ie	-8.81822
类	-8.8193
风	-8.82242
co	-8.82255
见	-8.82524
是什么	-8.82529
▁kids	-8.82707
▁当然	-8.82947
▁am	-8.83094
也是	-8.83107
▁social	-8.83351
▁One	-8.83358
▁per	-8.83387
tor	-8.83615
是否	-8.83638
方法	-8.83746
▁play	-8.83858
让我	-8.8398
生命	-8.83996
岁	-8.84006
球	-8.84175
▁left	-8.84206
做的	-8.84375
展示	-8.84406
G	-8.84407
音乐	-8.84411
▁She	-8.84442
影响	-8.84527
▁W	-8.84591
真正	-8.84769
▁future	-8.84869
▁My	-8.84873
,000	-8.84876
提	-8.84889
几	-8.85086
ated	-8.85133
▁getting	-8.85231
条	-8.8524
▁its	-8.85381
▁enough	-8.85404
女性	-8.8544
对于	-8.85484
远	-8.85634
▁事实上	-8.85643
部分	-8.85644
▁best	-8.85898
ted	-8.85921
合	-8.8616
员	-8.86184
声	-8.86358
层	-8.86362
▁interesting	-8.86431
型	-8.86484
bu	-8.86562
▁quite	-8.86888
▁M	-8.86919
▁side	-8.86994
hi	-8.87027
▁这样	-8.87276
ru	-8.87442
许多	-8.87552
大脑	-8.87663
▁head	-8.87867
ke	-8.87892
be	-8.87926
▁under	-8.87927
是在	-8.88062
▁food	-8.88182
▁人们	-8.8843
五	-8.8847
思考	-8.88528
va	-8.88625
全球	-8.88707
只有	-8.88781
▁making	-8.88812
10	-8.88872
年前	-8.89047
尼	-8.89069
如	-8.89083
nce	-8.89162
▁di	-8.89174
▁These	-8.89328
罗	-8.89421
学校	-8.89436
今天	-8.89516
明	-8.89517
该	-8.89835
▁care	-8.89844
▁happened	-8.89875
▁这就是	-8.89936
▁energy	-8.89986
▁po	-8.90049
O	-8.90065
单	-8.90089
▁answer	-8.90196
科技	-8.90305
干	-8.90313
▁ex	-8.90497
热	-8.90513
之一	-8.90526
▁ask	-8.90586
语	-8.90603
ous	-8.90622
少	-8.907
▁talking	-8.90758
▁planet	-8.90846
运动	-8.90902
过去	-8.91081
ally	-8.91111
▁probably	-8.91112
z	-8.91342
那么	-8.91356
达	-8.91502
西	-8.91532
眼	-8.91653
质	-8.91872
吃	-8.92029
两个	-8.92065
▁countries	-8.92396
甚至	-8.92399
安全	-8.92446
▁told	-8.92528
▁body	-8.92618
▁comes	-8.92778
情	-8.92829
▁build	-8.92837
nd	-8.92854
▁men	-8.92884
tra	-8.92903
▁move	-8.9297
fi	-8.93036
有人	-8.93052
▁science	-8.93114
▁Ma	-8.93126
一位	-8.9324
▁less	-8.93343
▁reason	-8.93394
建筑	-8.93396
▁stuff	-8.93407
买	-8.93547
▁room	-8.93727
空间	-8.93854
▁without	-8.93996
把它	-8.94046
提供	-8.9411
控制	-8.9429
mp	-8.94316
强	-8.94386
▁e	-8.94392
装	-8.94397
儿	-8.9442
已	-8.94489
old	-8.94639
权	-8.94785
时候	-8.94858
然后	-8.95101
mi	-8.95182
及	-8.95197
▁young	-8.95508
▁keep	-8.95527
▁bring	-8.9562
便	-8.957
▁b	-8.95751
K	-8.95822
ful	-8.9614
▁line	-8.96191
低	-8.96191
▁control	-8.96216
式	-8.96258
▁lives	-8.96325
▁dollars	-8.96357
利用	-8.96466
死	-8.96494
让我们	-8.96585
性的	-8.96733
电脑	-8.96736
▁你可以	-8.96746
▁happen	-8.96766
19	-8.96811
个人	-8.9701
am	-8.9708
话	-8.97236
▁pretty	-8.97243
▁coming	-8.97552
▁anything	-8.97621
门	-8.97672
自然	-8.97706
▁Here	-8.97769
▁g	-8.97819
▁Thank	-8.97923
▁simple	-8.97923
米	-8.97988
亿	-8.98004
非洲	-8.98018
ating	-8.98021
ph	-8.98083
▁As	-8.98202
▁half	-8.98284
bo	-8.98321
op	-8.98325
那样	-8.98336
难	-8.98386
H	-8.9841
另一个	-8.9846
形	-8.98466
解	-8.98521
▁matter	-8.98535
▁face	-8.98616
▁such	-8.98619
▁billion	-8.98774
读	-8.98836
ance	-8.98841
实验	-8.98908
建立	-8.9892
N	-8.98968
50	-8.98992
深	-8.99018
▁—	-8.9905
▁global	-8.99144
各种	-8.99231
]	-8.99296
▁这种	-8.99419
色	-8.99563
这么	-8.99698
▁那些	-8.99771
om	-8.99831
▁across	-8.99836
世纪	-8.99837
▁saw	-8.99945
▁project	-9.00044
man	-9.001
步	-9.0017
巴	-9.00286
取	-9.003
快	-9.00413
在这里	-9.00479
ary	-9.00489
▁war	-9.00502
艺术	-9.00576
tri	-9.0063
less	-9.00817
▁government	-9.00859
▁New	-9.00946
▁ma	-9.00952
通	-9.01166
曾	-9.01171
将会	-9.01188
▁Let	-9.01219
掉	-9.01236
健康	-9.01236
视	-9.01252
▁times	-9.0134
▁piece	-9.01393
▁bad	-9.01425
▁far	-9.01601
活	-9.01605
平	-9.01636
安	-9.01701
的故事	-9.01857
随	-9.02011
ster	-9.02016
▁learn	-9.02122
up	-9.0219
白	-9.02221
▁family	-9.02339
地球	-9.02406
想象	-9.0251
感到	-9.02568
▁bo	-9.02631
空	-9.02653
bi	-9.02725
意义	-9.02822
制造	-9.02944
以及	-9.02953
▁To	-9.03127
ling	-9.03203
确实	-9.03224
尝试	-9.03257
▁later	-9.03339
▁就像	-9.03342
节	-9.03384
令人	-9.03403
v	-9.03418
管	-9.03448
▁set	-9.03542
▁seen	-9.03763
意识到	-9.03774
啊	-9.03775
ect	-9.03818
游戏	-9.03857
保护	-9.03859
怎样	-9.04086
战	-9.04086
▁else	-9.041
微	-9.04236
em	-9.04432
▁Africa	-9.04518
女	-9.0453
件	-9.04619
▁都	-9.0462
▁asked	-9.04717
▁living	-9.04912
必须	-9.04926
网	-9.05053
▁case	-9.05074
维	-9.05127
住	-9.05321
文化	-9.05366
▁No	-9.05608
公	-9.05649
选	-9.0571
ize	-9.05714
周	-9.05769
千	-9.05854
▁All	-9.06145
ba	-9.06157
看看	-9.0634
原	-9.06406
▁hope	-9.0641
举	-9.06533
▁having	-9.06545
常	-9.06584
半	-9.06598
▁health	-9.06764
▁mind	-9.06814
▁(	-9.06836
▁3	-9.0694
脑	-9.06969
的一个	-9.07038
山	-9.07042
它的	-9.07053
越	-9.07055
▁比如	-9.07119
▁goes	-9.07136
参与	-9.07221
星	-9.07235
六	-9.07291
合作	-9.07338
飞	-9.07402
▁picture	-9.07419
▁D	-9.07443
go	-9.0747
基因	-9.07487
不知道	-9.07543
he	-9.07632
▁computer	-9.07845
语言	-9.07972
活动	-9.07978
科	-9.07996
变得	-9.08067
进入	-9.08407
产	-9.08461
▁我认为	-9.08596
是因为	-9.0878
在一起	-9.08803
》	-9.08885
笑	-9.08966
《	-9.0897
区	-9.09053
▁所以我	-9.09074
▁market	-9.0914
大学	-9.09171
ran	-9.09189
▁both	-9.0923
食物	-9.09239
▁happens	-9.09246
▁art	-9.09258
做了	-9.09343
地区	-9.0935
▁[	-9.0937
▁O	-9.09391
应	-9.09484
成功	-9.09585
别	-9.09814
的事	-9.0992
计划	-9.09988
pa	-9.10056
板	-9.10076
▁single	-9.10248
ni	-9.1029
继续	-9.10419
获得	-9.10441
▁可以	-9.10493
好的	-9.1052
回到	-9.10629
▁close	-9.107
样	-9.10845
那里	-9.1085
亚	-9.10961
gu	-9.10981
▁city	-9.10988
照	-9.10998
然	-9.1102
二	-9.1104
感觉	-9.11078
▁cr	-9.11135
中国	-9.11207
各	-9.11227
▁remember	-9.11281
▁level	-9.11382
谁	-9.11388
知	-9.11435
鱼	-9.11437
期	-9.1156
政治	-9.11717
最后	-9.11789
30	-9.11829
▁six	-9.12064
中心	-9.12087
▁says	-9.12095
ized	-9.12128
▁inside	-9.12212
▁read	-9.12212
der	-9.12216
▁almost	-9.12326
清	-9.12587
造	-9.12647
家庭	-9.1265
▁Earth	-9.12677
▁while	-9.12687
言	-9.12705
▁disease	-9.12765
市	-9.1283
模式	-9.12901
业	-9.12908
人的	-9.12968
%	-9.12979
▁test	-9.12982
机器人	-9.13007
接受	-9.13256
’	-9.13294
▁public	-9.13312
▁book	-9.1332
大概	-9.13378
更多	-9.13385
项目	-9.13539
▁state	-9.13551
解释	-9.13562
com	-9.13621
▁already	-9.13648
▁days	-9.13678
▁imagine	-9.13737
市场	-9.13755
▁不过	-9.13781
▁community	-9.13826
▁以	-9.13874
▁name	-9.13927
医生	-9.1393
率	-9.14016
▁sure	-9.14046
▁makes	-9.14058
▁saying	-9.14136
纳	-9.14258
▁St	-9.14337
ism	-9.14358
更多的	-9.14385
才能	-9.14412
就像	-9.1469
的时间	-9.14724
出现	-9.14808
重要	-9.14832
治疗	-9.14919
▁我的	-9.14924
▁yet	-9.15176
son	-9.15216
▁♪	-9.15241
疾病	-9.1526
事实	-9.15336
台	-9.15357
▁business	-9.15366
听到	-9.15379
nt	-9.15477
称	-9.1553
▁w	-9.15563
叫做	-9.15644
离	-9.15732
作用	-9.15767
ial	-9.15775
群	-9.15782
之间	-9.15874
ber	-9.16147
▁machine	-9.16163
第一个	-9.16171
立	-9.16226
ring	-9.16357
▁problems	-9.164
作为	-9.16437
▁去	-9.16456
努力	-9.16528
反	-9.16536
往	-9.16601
▁run	-9.16649
▁nothing	-9.16803
大约	-9.16821
经历	-9.16831
per	-9.16864
工具	-9.16999
▁comp	-9.17025
▁order	-9.17031
▁looked	-9.1706
▁whether	-9.17076
▁possible	-9.17168
几乎	-9.17171
排	-9.17232
关	-9.17343
▁once	-9.17621
▁如果我们	-9.17629
重新	-9.1769
拿	-9.17696
▁language	-9.17721
近	-9.17749
交	-9.17888
变成	-9.17896
▁program	-9.17911
▁someone	-9.17971
▁通过	-9.17972
关系	-9.18053
▁Co	-9.18122
▁top	-9.18144
▁我们可以	-9.18192
的工作	-9.18241
里面	-9.18362
▁video	-9.1837
▁basically	-9.18375
印度	-9.18435
di	-9.1868
大的	-9.18726
▁30	-9.18765
▁often	-9.18767
▁TED	-9.18774
(	-9.18881
▁guy	-9.18948
其中	-9.19098
领域	-9.19118
就能	-9.19192
▁这是一个	-9.19192
▁ways	-9.1921
早	-9.19291
▁而是	-9.19322
F	-9.19479
▁wrong	-9.19492
▁当我	-9.19541
找	-9.19551
▁American	-9.19554
实现	-9.19563
ach	-9.19644
▁music	-9.19665
os	-9.19777
ten	-9.19822
▁within	-9.19892
实际上	-9.20086
音	-9.20104
▁amazing	-9.20152
朋友	-9.2029
king	-9.20305
ton	-9.20348
ip	-9.20377
▁history	-9.20532
并不是	-9.2056
州	-9.20603
▁myself	-9.20626
▁house	-9.20722
传	-9.20723
▁beautiful	-9.20817
▁不	-9.20872
工	-9.20877
阿	-9.20878
▁然而	-9.20914
行为	-9.2107
但是	-9.2112
▁true	-9.21295
完成	-9.21312
▁cost	-9.21414
短	-9.2157
宇宙	-9.21629
▁child	-9.21672
就可以	-9.22003
▁couple	-9.22063
▁stop	-9.22105
▁为什么	-9.22142
里的	-9.22326
结果	-9.22379
▁research	-9.22411
▁50	-9.22505
因	-9.22677
特别	-9.22696
号	-9.23016
▁months	-9.23036
▁job	-9.2304
关注	-9.23042
文	-9.23068
神	-9.23095
▁所以我们	-9.23128
反应	-9.23142
社区	-9.23189
▁education	-9.23228
答案	-9.23229
▁heart	-9.23278
one	-9.23304
失	-9.23325
▁turn	-9.23392
数字	-9.23403
▁group	-9.23437
▁mo	-9.23494
▁night	-9.23524
我们可以	-9.23572
▁United	-9.23619
曾经	-9.23799
其实	-9.23848
观察	-9.23916
▁这里	-9.24044
一定	-9.24051
下来	-9.2408
分钟	-9.24111
▁large	-9.2414
树	-9.243
▁self	-9.24307
rs	-9.2434
的方法	-9.24376
▁ideas	-9.24407
观	-9.24544
处理	-9.24642
▁age	-9.24681
讨论	-9.24704
请	-9.24751
也许	-9.24885
这个问题	-9.24981
▁heard	-9.25014
▁与	-9.25107
▁Or	-9.25125
我在	-9.25182
有些	-9.25202
约	-9.25375
百	-9.2538
ator	-9.25396
谈	-9.25463
vo	-9.25477
产品	-9.25573
生产	-9.25612
当时	-9.25647
▁model	-9.25716
年代	-9.25819
▁air	-9.25896
▁difference	-9.25899
▁Why	-9.25984
land	-9.26134
▁Ro	-9.26189
持续	-9.26301
都有	-9.26319
▁L	-9.26352
乐	-9.26444
表	-9.26451
世界上	-9.26474
▁mother	-9.26511
代	-9.26577
孩子们	-9.26648
品	-9.26667
▁La	-9.26669
分享	-9.26708
十分	-9.26735
林	-9.26796
游	-9.26803
击	-9.26917
现实	-9.26967
药	-9.26977
▁但我	-9.27024
ag	-9.27082
▁Be	-9.27122
ish	-9.27181
停	-9.27299
ast	-9.27314
做出	-9.27372
▁用	-9.27397
则	-9.27471
ow	-9.27498
推	-9.27624
▁cancer	-9.27697
假	-9.27702
共	-9.27791
级	-9.27797
挑战	-9.27824
联系	-9.27907
都会	-9.27983
ight	-9.2799
▁cells	-9.27992
演讲	-9.28053
看起来	-9.28094
▁full	-9.28308
电影	-9.28409
区域	-9.28485
总是	-9.28514
照片	-9.28616
▁wasn	-9.28635
ig	-9.28668
the	-9.28743
▁built	-9.28746
切	-9.28777
自由	-9.28785
学生	-9.28846
导	-9.28917
我要	-9.28999
身体	-9.29027
▁要	-9.29109
人口	-9.29153
ot	-9.29441
▁must	-9.29471
病人	-9.29487
▁la	-9.295
▁pay	-9.295
les	-9.2952
更加	-9.29532
▁Re	-9.29621
▁words	-9.29679
▁sp	-9.29869
结构	-9.29995
▁environment	-9.30109
▁looks	-9.3017
ab	-9.30252
▁land	-9.30308
ga	-9.30378
变化	-9.30407
机器	-9.30439
che	-9.30444
汽车	-9.30625
▁front	-9.30725
▁share	-9.30785
纸	-9.30822
▁until	-9.30831
完	-9.30993
块	-9.31044
▁challenge	-9.31147
算	-9.31186
带来	-9.31364
金	-9.31399
波	-9.31464
▁Mi	-9.31524
想到	-9.31531
▁v	-9.31661
另一	-9.31672
超过	-9.31714
do	-9.31908
有关	-9.31915
▁让	-9.31964
资源	-9.32001
尽	-9.32166
服务	-9.32213
调	-9.32284
制作	-9.32328
行动	-9.32391
显示	-9.32531
90	-9.32583
wa	-9.32623
▁也许	-9.32742
▁Internet	-9.32852
▁everybody	-9.32852
▁word	-9.32858
▁free	-9.32871
▁De	-9.32875
▁deal	-9.3293
比较	-9.32956
▁同时	-9.33003
室	-9.33038
▁species	-9.33072
别人	-9.33072
基	-9.33083
▁completely	-9.33116
简单	-9.33123
你可以	-9.33156
▁figure	-9.33242
▁decided	-9.33265
▁States	-9.33283
一张	-9.33332
▁force	-9.33463
▁became	-9.33499
玩	-9.33604
主要	-9.33672
时代	-9.33689
有很多	-9.33809
▁knew	-9.33823
视频	-9.3385
代表	-9.33853
事物	-9.33855
她的	-9.3388
张	-9.33883
dy	-9.3391
观众	-9.3394
标	-9.3394
60	-9.34008
坐	-9.34033
战争	-9.34046
▁past	-9.34091
▁America	-9.34131
▁though	-9.34142
▁Do	-9.34289
接	-9.34292
ite	-9.34349
▁当你	-9.34396
源	-9.34463
▁对于	-9.34486
cy	-9.3451
演	-9.34583
以前	-9.34662
The	-9.34727
▁15	-9.34868
模型	-9.3492
南	-9.34994
的生活	-9.3505
连	-9.35123
唯一	-9.35176
▁leave	-9.35244
▁让我们	-9.35252
▁Al	-9.35275
▁universe	-9.35354
▁view	-9.35368
第一次	-9.3545
▁把	-9.35518
port	-9.35584
首	-9.35619
way	-9.35636
▁hear	-9.35697
身上	-9.35727
”。	-9.35753
价值	-9.35854
根	-9.35885
ative	-9.36003
引	-9.36077
▁experiment	-9.36129
支持	-9.36132
▁甚至	-9.36132
▁value	-9.3624
ture	-9.36242
寻找	-9.363
▁happening	-9.36316
的世界	-9.36367
▁fish	-9.36376
▁Ba	-9.36386
▁friends	-9.3647
明白	-9.36495
不要	-9.36609
想法	-9.36712
▁learned	-9.36713
▁study	-9.36744
火	-9.36758
TED	-9.36871
拍	-9.36907
▁natural	-9.36909
▁stories	-9.37133
女孩	-9.37177
词	-9.37265
▁exactly	-9.37271
▁works	-9.37321
组	-9.3739
▁那是	-9.37458
▁taking	-9.37471
▁100	-9.37531
过程	-9.37626
▁since	-9.37696
类似	-9.37703
大部分	-9.37766
理论	-9.3785
▁将	-9.37913
▁somebody	-9.37922
▁huge	-9.37922
mon	-9.37954
▁places	-9.37993
▁最后	-9.38071
字	-9.38145
▁woman	-9.38148
▁实际上	-9.38173
同时	-9.38255
▁itself	-9.38261
是我们	-9.38328
ities	-9.38356
巨大的	-9.38356
▁nature	-9.38375
几个	-9.38406
民	-9.38487
八	-9.38488
句	-9.38488
自我	-9.38784
注	-9.38793
亲	-9.38803
双	-9.3883
▁students	-9.38836
建	-9.38849
考虑	-9.38945
海洋	-9.38951
▁于是	-9.38977
为了	-9.3911
象	-9.39125
倍	-9.39145
if	-9.39165
▁会	-9.3922
▁没有	-9.39411
正是	-9.39509
▁society	-9.39517
商	-9.39607
冰	-9.39632
知识	-9.39639
养	-9.3974
有点	-9.39768
▁N	-9.39768
科学家	-9.39845
▁economic	-9.39862
▁animals	-9.39878
ors	-9.39972
▁1	-9.40008
收	-9.4003
♫	-9.40032
古	-9.40092
座	-9.40108
▁phone	-9.40325
密	-9.40407
▁themselves	-9.4044
▁against	-9.40579
美元	-9.40584
百万	-9.40622
▁ourselves	-9.40672
些	-9.40713
▁lo	-9.40747
的孩子	-9.40764
死亡	-9.40781
做到	-9.40903
0	-9.4093
▁isn	-9.40945
cu	-9.41065
ner	-9.41146
▁step	-9.41156
界	-9.41189
景	-9.41232
ther	-9.41328
油	-9.41366
▁好	-9.41411
所以	-9.41504
能力	-9.41596
ud	-9.4161
办法	-9.41747
顶	-9.41776
一天	-9.41929
落	-9.41948
有个	-9.42015
她们	-9.42022
杀	-9.42041
▁India	-9.42055
ward	-9.42063
mer	-9.42069
▁再	-9.42078
▁behavior	-9.42195
卖	-9.42195
▁sometimes	-9.42196
▁sub	-9.42346
超	-9.42369
ld	-9.4238
跳	-9.42431
原因	-9.42446
通常	-9.42468
其它	-9.42612
男人	-9.4273
食	-9.42754
论	-9.42761
的想法	-9.42762
▁Le	-9.42803
▁sound	-9.42813
ng	-9.42821
未来	-9.42923
机构	-9.42956
▁personal	-9.42986
局	-9.43018
例	-9.4314
形成	-9.43169
重要的	-9.43174
上面	-9.43409
是一种	-9.43454
神经	-9.43517
集	-9.43519
▁OK	-9.4352
直	-9.43538
核	-9.43591
跑	-9.43621
▁company	-9.43621
救	-9.4374
当然	-9.43834
▁along	-9.4389
lic	-9.43896
▁CA	-9.43897
▁gr	-9.43921
15	-9.44001
夫	-9.44101
结	-9.44135
fa	-9.4421
坏	-9.44217
▁culture	-9.44221
结束	-9.44223
ap	-9.44251
女人	-9.4427
告诉	-9.44361
ving	-9.44372
歌	-9.44574
在那里	-9.44601
▁team	-9.44749
精	-9.4478
▁created	-9.44782
que	-9.44788
投资	-9.44816
▁li	-9.44979
▁hours	-9.45083
▁turns	-9.45174
▁couldn	-9.45206
并没有	-9.45258
达到	-9.45259
并且	-9.45293
奥	-9.4531
▁ocean	-9.45311
病毒	-9.45321
▁minutes	-9.45347
▁particular	-9.45418
▁cause	-9.45433
▁imp	-9.45438
最终	-9.4545
▁game	-9.45478
三个	-9.4557
▁law	-9.45639
ping	-9.45651
传统	-9.45679
报	-9.45741
▁walk	-9.45755
数学	-9.45765
足	-9.45779
都在	-9.45982
▁cell	-9.46031
一切	-9.46033
计算机	-9.46156
▁questions	-9.46176
we	-9.46209
ning	-9.46267
助	-9.46271
▁worked	-9.46277
给我	-9.46414
▁rather	-9.46538
▁won	-9.46564
▁当我们	-9.46653
▁population	-9.46659
一条	-9.46684
惊	-9.46725
用来	-9.46733
red	-9.46743
世	-9.46798
创新	-9.46896
是我	-9.46906
目标	-9.46937
▁200	-9.46965
材料	-9.47032
意味着	-9.4704
奇	-9.47183
line	-9.47255
很多人	-9.47291
▁sea	-9.4746
▁God	-9.47489
▁least	-9.47528
▁third	-9.47651
记录	-9.4773
ile	-9.47799
▁network	-9.479
牛	-9.479
母亲	-9.47928
▁我在	-9.47955
▁difficult	-9.48025
看着	-9.48036
离开	-9.48117
▁Then	-9.48168
▁exist	-9.48174
▁entire	-9.48265
▁black	-9.48276
清楚	-9.48276
▁everyone	-9.48319
▁thousands	-9.4836
有了	-9.48401
▁type	-9.48406
and	-9.48412
师	-9.48416
兰	-9.48524
▁buy	-9.48533
▁我们的	-9.48553
▁我们需要	-9.48567
整	-9.48602
射	-9.48604
是如何	-9.48631
历史	-9.48645
▁structure	-9.48652
▁At	-9.48692
▁early	-9.48908
▁...	-9.48952
每天	-9.48956
▁pick	-9.49059
很好	-9.49063
测试	-9.49064
至	-9.49149
▁最	-9.49154
到底	-9.4924
七	-9.49284
情况	-9.49408
愿意	-9.49437
▁outside	-9.49506
不仅	-9.49626
船	-9.49653
手机	-9.4972
▁那就是	-9.4974
也有	-9.49773
小时	-9.49777
▁local	-9.498
▁paper	-9.4992
当你	-9.49985
▁Bo	-9.50005
不再	-9.50012
▁risk	-9.50047
街	-9.50149
hu	-9.50189
wi	-9.50251
媒体	-9.50305
▁rec	-9.50307
▁seven	-9.5043
英国	-9.50442
ever	-9.5046
最近	-9.50496
复杂	-9.50508
列	-9.50554
W	-9.50669
同样的	-9.50684
看到的	-9.50685
led	-9.50788
可能会	-9.50809
进化	-9.50823
包	-9.50864
▁poor	-9.50904
▁speak	-9.50925
J	-9.50932
▁color	-9.50945
▁instead	-9.51073
io	-9.51159
500	-9.51172
▁grow	-9.5118
岛	-9.51202
row	-9.51218
40	-9.51249
ee	-9.51277
▁关于	-9.51299
的小	-9.51308
贝	-9.51331
▁happy	-9.51331
医疗	-9.51332
▁gave	-9.51336
实验室	-9.51346
分子	-9.51418
▁Some	-9.51423
▁guys	-9.51439
放在	-9.51453
物质	-9.5163
每个	-9.51676
▁field	-9.51691
▁amount	-9.5172
多少	-9.51741
士	-9.51857
复	-9.5192
▁en	-9.51965
我认为	-9.52066
▁die	-9.52078
▁support	-9.5224
不断	-9.52275
▁image	-9.52288
一年	-9.52294
▁kinds	-9.52311
▁York	-9.52371
一只	-9.52412
▁map	-9.52419
▁taken	-9.52477
lt	-9.52483
声音	-9.52577
倒	-9.52632
移动	-9.52646
温	-9.52733
关键	-9.52768
仍然	-9.52771
ard	-9.52868
▁rest	-9.52982
哈	-9.53156
应用	-9.53236
▁short	-9.5329
错误	-9.53293
能源	-9.53296
弹	-9.53426
谈论	-9.53432
有着	-9.53439
架	-9.53552
▁China	-9.53561
让人	-9.53579
院	-9.53622
ical	-9.53764
▁record	-9.53825
某	-9.53896
刚	-9.53906
满	-9.53919
也会	-9.53924
修	-9.53944
▁death	-9.53951
▁du	-9.53955
nu	-9.53965
12	-9.53977
uc	-9.54022
▁scale	-9.54212
ju	-9.54253
use	-9.54287
不可能	-9.54325
▁V	-9.54327
▁common	-9.5435
▁一	-9.54374
▁week	-9.54444
程	-9.54445
味	-9.54483
ny	-9.54496
除	-9.54583
出了	-9.54599
服	-9.54606
▁act	-9.54634
在这	-9.54746
木	-9.54875
回答	-9.54889
▁changed	-9.5492
试图	-9.54921
预	-9.54974
哪	-9.54983
领	-9.55007
看见	-9.55075
▁每	-9.55081
年的	-9.55134
导致	-9.55159
100	-9.55327
能量	-9.55332
▁他说	-9.55365
帮	-9.55546
▁middle	-9.55556
证明	-9.55564
▁learning	-9.55624
增长	-9.5569
纽约	-9.55693
▁friend	-9.55912
同样	-9.55914
意识	-9.55973
ions	-9.56057
▁为了	-9.56072
这就是	-9.56128
事实上	-9.56138
站	-9.56143
运	-9.56204
让你	-9.56311
个月	-9.56326
压	-9.56336
▁18	-9.56376
现	-9.5646
电视	-9.56512
支	-9.56631
具有	-9.56668
cent	-9.56673
而言	-9.56713
示	-9.56847
恶	-9.56914
▁relationship	-9.56916
管理	-9.5695
▁feeling	-9.5698
曲	-9.57025
ization	-9.57046
ex	-9.57159
par	-9.57162
军	-9.57185
设备	-9.5719
▁我们在	-9.57268
▁其实	-9.57363
经	-9.57428
▁area	-9.57462
▁street	-9.57463
父母	-9.57476
基本	-9.57583
保持	-9.57604
面对	-9.57668
试	-9.57739
一件	-9.57848
皮	-9.57874
数量	-9.5788
相当	-9.57944
con	-9.5796
▁film	-9.58014
gg	-9.58026
▁deep	-9.58031
▁cities	-9.58041
症	-9.5817
等等	-9.58201
▁turned	-9.58238
▁Okay	-9.58336
角	-9.58344
▁century	-9.58416
▁choice	-9.58429
▁father	-9.58431
ay	-9.58432
▁effect	-9.58535
ger	-9.58549
▁H	-9.58566
足够	-9.58571
ries	-9.58654
ier	-9.587
派	-9.58707
▁systems	-9.58741
植物	-9.58785
▁Hi	-9.58806
换	-9.58821
准备	-9.58833
料	-9.58835
▁beginning	-9.58854
连接	-9.58858
留	-9.58971
▁sa	-9.5905
▁今天	-9.59088
▁yourself	-9.59126
▁size	-9.59181
▁eyes	-9.59218
▁behind	-9.59266
▁mis	-9.59317
▁或	-9.59326
电子	-9.59497
year	-9.595
错	-9.59502
未	-9.59543
增加	-9.59557
直接	-9.59569
▁dream	-9.59686
至少	-9.59701
害	-9.59781
▁app	-9.59805
ction	-9.59808
而且	-9.59851
▁given	-9.59862
机会	-9.59875
当我	-9.59886
费	-9.59925
▁arm	-9.59973
图片	-9.59981
by	-9.60021
在一个	-9.60034
很难	-9.60089
土	-9.60131
▁40	-9.60176
血	-9.60236
▁explain	-9.6025
ric	-9.60446
▁On	-9.60492
精神	-9.60642
告诉我	-9.60653
的人们	-9.60725
何	-9.60775
▁被	-9.60811
ible	-9.60934
▁2	-9.6094
ship	-9.60956
也不	-9.60971
最大的	-9.61035
▁gets	-9.61184
▁news	-9.61224
▁physical	-9.61244
脚	-9.61244
▁certain	-9.61251
▁reach	-9.61257
▁powerful	-9.61277
▁began	-9.61361
▁wonderful	-9.61398
会有	-9.61404
民主	-9.61433
例子	-9.61438
▁finally	-9.61446
的原因	-9.61455
真正的	-9.6146
物种	-9.61525
有效	-9.61536
▁eight	-9.61553
▁oil	-9.61555
计算	-9.61572
那种	-9.6158
▁media	-9.61581
▁easy	-9.61674
▁break	-9.61744
全世界	-9.61753
么	-9.61813
▁access	-9.61817
▁perhaps	-9.61817
普	-9.61946
老师	-9.61981
▁kid	-9.6199
during	-9.62046
的确	-9.62064
骨	-9.62072
萨	-9.62105
探索	-9.62108
黑	-9.62134
建造	-9.6232
▁fall	-9.62419
交流	-9.62424
ound	-9.62639
零	-9.62682
你能	-9.62689
儿童	-9.62692
共同	-9.62708
▁needed	-9.62717
晚	-9.62765
▁red	-9.62769
▁像	-9.62771
聚	-9.62789
简	-9.62806
▁measure	-9.62827
护	-9.62959
▁surface	-9.62973
告诉你	-9.62979
▁lots	-9.63179
▁moving	-9.63275
现象	-9.63363
▁movement	-9.63431
gen	-9.6355
▁companies	-9.63555
每个人都	-9.63604
药物	-9.63731
我们在	-9.63765
▁因为我们	-9.63846
北	-9.63959
作品	-9.63973
给你	-9.6398
也可以	-9.64026
方向	-9.64092
优	-9.64134
坐在	-9.64152
You	-9.64156
▁stay	-9.64257
表现	-9.64325
ble	-9.64401
▁terms	-9.64415
客	-9.64419
减少	-9.64448
▁Mar	-9.64455
本身	-9.64526
act	-9.64538
ain	-9.6457
的研究	-9.64579
cal	-9.64581
▁political	-9.64583
▁simply	-9.64583
第一	-9.64595
▁realized	-9.64691
久	-9.64713
▁cannot	-9.64733
不到	-9.64771
▁首先	-9.64831
▁bar	-9.64841
ual	-9.64899
男	-9.6492
▁low	-9.65026
癌症	-9.6503
▁center	-9.65043
▁seeing	-9.65044
▁longer	-9.65106
认识	-9.65152
刻	-9.65175
▁met	-9.65186
▁Can	-9.65194
网站	-9.65197
▁hands	-9.65247
在这个	-9.65286
异	-9.65307
靠	-9.65311
▁device	-9.65324
当地	-9.65338
功能	-9.65351
红	-9.6546
迪	-9.65472
ren	-9.65511
▁12	-9.65569
送	-9.65613
果	-9.65699
70	-9.65728
事件	-9.6574
脸	-9.65771
ide	-9.65855
end	-9.65878
要求	-9.6594
石	-9.65998
80	-9.6603
ious	-9.66079
▁我说	-9.66094
▁blue	-9.66185
人员	-9.66191
▁key	-9.66228
一个人	-9.66243
团队	-9.66375
▁kill	-9.66416
▁因为我	-9.66425
mate	-9.66481
这一点	-9.66521
ja	-9.66603
做什么	-9.66662
▁Just	-9.66678
▁spend	-9.66705
ear	-9.66764
问题是	-9.66769
草	-9.66822
房	-9.66824
某些	-9.66831
形式	-9.66847
仅仅	-9.66896
▁shape	-9.66906
让他们	-9.66961
▁photograph	-9.66976
▁special	-9.66976
发明	-9.66999
▁others	-9.67029
▁cut	-9.67035
夜	-9.67124
▁reality	-9.67209
▁begin	-9.67268
刚刚	-9.67284
受到	-9.6771
ord	-9.67715
ob	-9.67732
▁save	-9.6775
每一个	-9.67805
生活在	-9.67806
▁protect	-9.67815
初	-9.67865
主义	-9.67891
▁represent	-9.68037
危险	-9.68037
在于	-9.68058
每年	-9.6809
▁而不是	-9.6809
的一部分	-9.68103
只能	-9.68134
年轻	-9.68181
索	-9.68185
▁voice	-9.6819
突然	-9.68196
不得不	-9.68198
tion	-9.68218
目	-9.68254
如果我们	-9.68262
▁felt	-9.68349
不需要	-9.68488
冷	-9.68496
分析	-9.685
▁tried	-9.68511
穿	-9.68533
迷	-9.68579
▁non	-9.68583
▁Ho	-9.68595
弄	-9.6865
欧洲	-9.68651
永远	-9.68669
Well	-9.68672
基本上	-9.68683
很快	-9.68776
端	-9.68787
基础	-9.68802
▁所有	-9.68829
▁比	-9.68848
▁DNA	-9.68857
▁whatever	-9.68877
造成	-9.68957
的数据	-9.69041
▁expect	-9.69111
塔	-9.69112
▁eat	-9.69147
我们能	-9.69213
▁parents	-9.69224
随着	-9.6925
▁send	-9.69337
▁approach	-9.69421
▁thank	-9.69429
▁其中	-9.6946
独	-9.69549
飞机	-9.69614
▁quickly	-9.69636
hy	-9.69679
墙	-9.69732
ak	-9.69857
过来	-9.69909
▁你会	-9.6993
side	-9.69978
简单的	-9.69988
▁organization	-9.70046
▁solve	-9.70047
电话	-9.70064
这样做	-9.70157
笔	-9.70199
▁produce	-9.70255
lin	-9.70279
▁让我	-9.70333
轮	-9.70355
商业	-9.7037
ake	-9.70485
以后	-9.70493
▁wall	-9.70539
▁rate	-9.70635
▁blood	-9.70668
公共	-9.70686
▁fun	-9.7069
最好的	-9.70761
的信息	-9.70813
华	-9.70825
经常	-9.70839
ler	-9.7084
▁plan	-9.70891
东	-9.70915
益	-9.70954
▁People	-9.70983
肯定	-9.70989
▁inter	-9.71
觉	-9.71005
▁treat	-9.71078
的国家	-9.71118
剧	-9.71132
虫	-9.7114
「	-9.7114
」	-9.7114
互联网	-9.7114
伤	-9.71141
ign	-9.71259
的声音	-9.71272
和我	-9.71291
▁dark	-9.71301
底	-9.71337
人生	-9.71391
▁Y	-9.71528
lock	-9.71656
沙	-9.71772
困难	-9.71775
周围	-9.71779
▁fear	-9.71826
▁Po	-9.71921
▁ground	-9.7194
bra	-9.71959
ick	-9.71979
创	-9.72046
▁boy	-9.72157
▁interested	-9.72284
▁spent	-9.72291
▁Te	-9.72312
包括	-9.72338
之间的	-9.72369
▁4	-9.72398
▁strong	-9.72409
轻	-9.72493
时刻	-9.72505
丝	-9.72569
▁growth	-9.72626
减	-9.72715
▁当时	-9.72717
断	-9.72718
▁opportunity	-9.72729
提出	-9.72781
可以看到	-9.72829
▁我觉得	-9.72894
▁gone	-9.72955
开发	-9.72998
灯	-9.73046
▁generation	-9.73053
下面	-9.73128
紧	-9.73193
▁hit	-9.73214
▁stand	-9.73286
▁parts	-9.7338
▁super	-9.73381
ue	-9.73396
▁individual	-9.73425
▁present	-9.73493
营	-9.73514
保	-9.73516
▁更	-9.73545
▁situation	-9.73694
地图	-9.73704
00	-9.73716
暴力	-9.73726
我们需要	-9.73773
使得	-9.73843
很重要	-9.7385
唱	-9.73856
▁write	-9.73906
发生的	-9.73948
令	-9.73959
▁Ha	-9.73961
预测	-9.74025
▁hold	-9.74068
▁尽管	-9.74088
其他人	-9.74122
▁但我们	-9.74139
▁travel	-9.74181
不可	-9.74194
盖	-9.74341
限	-9.74417
表达	-9.74426
▁它是	-9.74532
就在	-9.74605
议	-9.74637
一项	-9.74658
境	-9.74664
ition	-9.74718
▁drive	-9.7476
▁takes	-9.74791
根本	-9.74827
触	-9.74987
冲	-9.74992
▁我要	-9.74996
▁wonder	-9.74999
适	-9.75027
配	-9.75129
课	-9.75151
qua	-9.75155
▁consider	-9.7516
▁class	-9.752
▁虽然	-9.75206
实际	-9.75242
一般	-9.75263
rt	-9.75393
▁either	-9.75489
▁Su	-9.75578
▁office	-9.75627
了这个	-9.75792
▁complex	-9.75793
毒	-9.75794
伦	-9.75818
▁sitting	-9.75832
手术	-9.75836
顿	-9.75984
▁add	-9.76059
这么做	-9.76077
姆	-9.76149
▁economy	-9.76149
▁message	-9.76158
▁weeks	-9.76202
val	-9.76236
own	-9.76258
▁girl	-9.76263
队	-9.76274
查	-9.76293
圈	-9.76315
登	-9.76315
组成	-9.76388
▁focus	-9.76391
愿	-9.76442
过程中	-9.76458
诺	-9.76479
有什么	-9.76481
▁即使	-9.76506
你知道	-9.76532
大多数	-9.76631
最重要的	-9.76668
print	-9.76679
▁sta	-9.76681
ding	-9.76697
▁Na	-9.76711
ability	-9.76723
程序	-9.76753
智	-9.7676
狗	-9.76814
加入	-9.76871
育	-9.76922
团	-9.76926
18	-9.76966
▁climate	-9.76981
▁green	-9.76982
▁known	-9.77037
What	-9.77052
▁white	-9.77055
▁stage	-9.77066
发生在	-9.77154
程度	-9.77181
目的	-9.77181
由于	-9.77196
发生了	-9.7728
ug	-9.77309
百分之	-9.77316
根据	-9.77319
▁Sa	-9.7735
▁fire	-9.77363
置	-9.77393
绝	-9.77409
我会	-9.77484
收入	-9.77513
▁Our	-9.77572
▁ability	-9.77575
▁impact	-9.77661
▁lost	-9.77665
▁大家	-9.77682
梦想	-9.77698
圣	-9.77703
▁Lo	-9.77707
过的	-9.77728
一场	-9.77771
▁animal	-9.77798
河	-9.77803
▁不是	-9.77824
正常	-9.77873
更好的	-9.77912
▁increase	-9.77989
▁nice	-9.78003
ec	-9.78071
快乐	-9.78107
成了	-9.78241
ron	-9.78251
测	-9.78271
ration	-9.78271
容	-9.78284
哦	-9.78327
激	-9.78336
▁也就是	-9.78337
ff	-9.78439
是由	-9.78621
艾	-9.78666
体验	-9.78696
ang	-9.78753
▁sign	-9.78803
上帝	-9.78806
▁chance	-9.78839
某种	-9.789
da	-9.789
▁为	-9.78904
求	-9.78971
暴	-9.78973
塞	-9.79006
恩	-9.79006
素	-9.79012
效	-9.79052
一段	-9.79057
专	-9.79098
▁Right	-9.7921
鲁	-9.79348
▁incredible	-9.79348
来到	-9.79398
istic	-9.79412
▁能	-9.79448
▁realize	-9.79478
化学	-9.79482
▁needs	-9.79491
盘	-9.79519
眼睛	-9.79519
▁feet	-9.79544
▁Pa	-9.79606
经过	-9.79662
务	-9.79679
来看	-9.79687
缩	-9.79691
搞	-9.79691
拍摄	-9.79693
▁cool	-9.79763
▁lead	-9.79786
ea	-9.79788
有一些	-9.79874
担心	-9.79877
▁connect	-9.79957
遇到	-9.7998
传播	-9.80039
ists	-9.80044
▁5	-9.80049
第	-9.8007
赛	-9.80165
▁Not	-9.80284
我就	-9.8029
这件事	-9.80325
▁main	-9.80339
在美国	-9.80346
国际	-9.80386
▁cover	-9.80454
▁product	-9.80457
▁Da	-9.80546
▁morning	-9.80553
你在	-9.806
▁bio	-9.80628
ice	-9.80635
▁camera	-9.80697
▁average	-9.80727
▁fl	-9.80743
托	-9.809
毛	-9.809
消	-9.80962
▁br	-9.8101
石油	-9.81083
记	-9.81092
状态	-9.81109
所做的	-9.81217
妈妈	-9.81248
待	-9.81258
▁result	-9.81298
▁watch	-9.81413
▁provide	-9.81423
▁clear	-9.81463
伊	-9.81595
现代	-9.8161
这些人	-9.81729
越来越	-9.81752
捕	-9.81772
改变了	-9.81818
定义	-9.81823
了很多	-9.81856
我是	-9.81865
认	-9.81878
计	-9.81901
▁wouldn	-9.81907
诗	-9.82116
▁bottom	-9.82124
▁humans	-9.82215
▁audience	-9.823
▁potential	-9.823
gi	-9.82302
ise	-9.82323
har	-9.8235
lan	-9.82364
投	-9.82466
不用	-9.82473
比如	-9.82477
▁material	-9.82553
▁fast	-9.82578
英里	-9.82629
▁pull	-9.82656
医院	-9.82659
▁直到	-9.82705
提高	-9.82747
付	-9.82763
▁win	-9.82781
▁character	-9.8283
▁function	-9.82837
学家	-9.82855
▁based	-9.82871
。“	-9.82993
您	-9.83007
▁growing	-9.83033
面临	-9.83065
参加	-9.83076
log	-9.83106
pp	-9.83109
防	-9.83174
命	-9.83238
200	-9.83298
值	-9.83304
法律	-9.83359
伯	-9.83362
ology	-9.83384
去了	-9.83427
道德	-9.83446
▁issue	-9.83478
▁patients	-9.83482
领导	-9.83503
暗	-9.83534
肉	-9.8354
▁brought	-9.83541
▁areas	-9.83572
你会	-9.83716
▁general	-9.83721
任务	-9.83725
宗教	-9.83733
给我们	-9.83824
ade	-9.83835
▁invest	-9.83838
cc	-9.83869
▁attention	-9.83898
▁innovation	-9.83898
软件	-9.83905
▁born	-9.84038
...	-9.84042
▁但是我	-9.84072
似乎	-9.84079
资	-9.84188
当我们	-9.84217
生存	-9.84331
都不	-9.84411
会说	-9.84459
不仅仅是	-9.84476
▁box	-9.84485
DNA	-9.84554
相互	-9.84609
莱	-9.84617
描述	-9.84618
信号	-9.84645
具	-9.84665
思想	-9.84755
▁object	-9.84758
▁shows	-9.84795
仅	-9.84827
▁我会	-9.84833
▁ones	-9.84862
嗯	-9.84978
的例子	-9.8499
终	-9.85045
▁An	-9.85052
▁understanding	-9.85057
▁sex	-9.85057
▁scientists	-9.85145
小的	-9.85154
平均	-9.85166
调查	-9.8517
飞行	-9.85202
试着	-9.85338
堆	-9.85341
思	-9.85348
真是	-9.85364
▁development	-9.85377
说明	-9.85421
▁请	-9.85433
▁Every	-9.85523
▁literally	-9.85523
du	-9.85575
不错	-9.85644
▁qu	-9.8578
的影响	-9.85829
▁action	-9.85878
告诉我们	-9.85882
▁wrote	-9.85888
ray	-9.85909
▁allow	-9.8595
有可能	-9.86019
来的	-9.86043
▁Jo	-9.86093
的照片	-9.86146
▁Go	-9.86164
第二	-9.86207
回来	-9.86209
我们所	-9.86247
酒	-9.86249
看到了	-9.86251
感兴趣	-9.86265
站在	-9.8632
没有人	-9.86418
▁visual	-9.86437
▁knowledge	-9.86437
班	-9.86437
第三	-9.86588
rac	-9.86617
藏	-9.86618
▁smart	-9.86622
▁changes	-9.86762
雷	-9.86805
充满	-9.86812
录	-9.8683
▁forward	-9.86837
幸福	-9.86871
▁例如	-9.86894
发现了	-9.8692
可能是	-9.86947
▁continue	-9.86964
风险	-9.86992
▁books	-9.87134
阶段	-9.87176
▁Ar	-9.87291
▁lab	-9.87337
占	-9.87357
▁technologies	-9.8736
收集	-9.87372
cle	-9.8742
效果	-9.87463
24	-9.8747
协	-9.8753
准	-9.87535
犯	-9.87538
▁running	-9.87562
▁hundreds	-9.87767
med	-9.87794
▁text	-9.8782
想想	-9.87878
ook	-9.8788
元	-9.87888
▁Chris	-9.87968
提到	-9.88005
▁safe	-9.88011
pri	-9.8803
办	-9.88045
友	-9.88103
▁Li	-9.88172
▁只有	-9.88201
仍	-9.8828
聪明	-9.88292
▁seem	-9.88301
存	-9.88361
▁su	-9.88403
all	-9.88408
标准	-9.88482
U	-9.8854
▁artist	-9.88549
行星	-9.88563
ink	-9.88583
chi	-9.88599
全部	-9.88627
▁我知道	-9.88724
▁你知道	-9.88734
▁tend	-9.88745
杰	-9.88853
▁giving	-9.88854
那是	-9.88867
一旦	-9.88883
▁Me	-9.88934
▁结果	-9.88939
不过	-9.88953
▁alone	-9.8905
完美	-9.89069
新闻	-9.89083
的能力	-9.89088
▁numbers	-9.89163
以为	-9.89203
▁World	-9.8923
out	-9.89238
你要	-9.89347
意思	-9.89388
ments	-9.89397
▁这是我	-9.89406
▁25	-9.89418
▁similar	-9.89419
▁guess	-9.8942
▁spread	-9.8942
▁在我	-9.89432
▁developed	-9.89473
任	-9.89539
腿	-9.89609
值得	-9.89667
题	-9.89742
作为一个	-9.89777
▁第一	-9.8978
翻	-9.89797
▁无论	-9.89839
学到	-9.8984
的结果	-9.89878
其他的	-9.8991
▁miles	-9.89959
差	-9.89965
化的	-9.89976
ass	-9.89981
某个	-9.89985
曼	-9.89989
房间	-9.90009
▁movie	-9.9018
森林	-9.90188
的大脑	-9.90294
▁starting	-9.90317
的情况	-9.90351
▁但这	-9.90379
▁sun	-9.90465
den	-9.90505
对吧	-9.90576
普通	-9.90578
qui	-9.90617
▁我希望	-9.90646
致	-9.90697
福	-9.9072
野	-9.90753
训练	-9.90753
小孩	-9.90767
速	-9.90829
▁pass	-9.90831
抗	-9.90835
▁eye	-9.90845
退	-9.90943
九	-9.90945
革命	-9.90946
▁seems	-9.90981
试验	-9.90983
带着	-9.91003
我们要	-9.91005
▁即	-9.91082
▁然后我	-9.91111
▁fly	-9.91167
V	-9.91185
▁tools	-9.91193
▁dead	-9.91262
▁South	-9.91313
到达	-9.91348
▁post	-9.9136
au	-9.91492
我觉得	-9.91496
▁Di	-9.91496
警	-9.9152
▁fundamental	-9.91523
▁fe	-9.91526
因素	-9.91534
▁Z	-9.91557
cla	-9.91617
下去	-9.91692
封	-9.91716
失败	-9.9172
▁却	-9.91828
真实	-9.91829
勒	-9.9191
露	-9.9191
▁hospital	-9.9191
兴奋	-9.91911
专家	-9.9195
经验	-9.91964
水平	-9.92004
▁require	-9.92104
▁能够	-9.92135
▁soon	-9.92157
▁Yeah	-9.92198
每个人	-9.92221
▁sit	-9.92231
航	-9.92287
▁telling	-9.92289
▁anyone	-9.92356
▁还	-9.92365
世界的	-9.92372
light	-9.92388
表演	-9.92419
会议	-9.9249
瓦	-9.92494
住在	-9.9257
▁Ca	-9.92582
王	-9.92689
打开	-9.92793
▁meet	-9.92881
绿色	-9.92891
▁touch	-9.92893
一半	-9.92954
自身	-9.9311
太阳	-9.93161
在我	-9.9323
力量	-9.93264
▁Con	-9.93268
铁	-9.93277
载	-9.93277
▁sell	-9.933
▁absolutely	-9.93317
amp	-9.93337
十年	-9.9335
ace	-9.93368
▁theory	-9.93411
▁region	-9.93474
▁suggest	-9.93474
急	-9.93474
▁enter	-9.93559
更好	-9.93562
去做	-9.93566
一家	-9.93657
还要	-9.93707
▁source	-9.93761
告	-9.93855
妇女	-9.93874
容易	-9.93933
mark	-9.93958
父亲	-9.93985
▁mass	-9.93986
▁solution	-9.94005
按	-9.94056
吸引	-9.94074
▁goal	-9.94083
工程	-9.94143
▁还是	-9.94163
sens	-9.94209
▁village	-9.94265
恐惧	-9.94266
政策	-9.94267
出来的	-9.94295
▁gas	-9.94307
房子	-9.94345
▁talked	-9.94345
复杂的	-9.94349
11	-9.94405
碰	-9.94464
假设	-9.94471
▁late	-9.94473
▁anti	-9.94489
我们有	-9.9464
职	-9.94653
猜	-9.94658
吉	-9.94663
给了	-9.94669
对我们	-9.94675
它是	-9.9468
图像	-9.94702
大量的	-9.94703
能看到	-9.94713
用于	-9.94829
▁period	-9.94863
记忆	-9.94863
▁develop	-9.9489
各位	-9.94922
▁table	-9.94935
著	-9.95061
时期	-9.95162
的行为	-9.95165
绝对	-9.95171
▁Google	-9.95178
▁images	-9.95193
▁Com	-9.95235
概念	-9.95259
▁push	-9.95264
英尺	-9.95265
▁road	-9.95267
rop	-9.95274
是不是	-9.95283
伟大的	-9.9529
▁Of	-9.95298
负	-9.95299
▁worth	-9.95366
▁forest	-9.95401
▁English	-9.95464
需求	-9.95469
▁report	-9.9548
升	-9.95484
▁normal	-9.95529
▁issues	-9.95557
把它们	-9.95575
款	-9.95665
糟糕	-9.95666
星期	-9.95692
day	-9.95786
充	-9.95816
▁page	-9.95821
土地	-9.95835
视觉	-9.95883
▁接着	-9.95907
他人	-9.95981
城	-9.96058
▁track	-9.96071
▁或是	-9.96091
put	-9.96137
▁millions	-9.96161
fin	-9.96213
这一切	-9.96235
易	-9.96255
洛	-9.96271
▁affect	-9.96272
医	-9.96286
▁rich	-9.96315
▁但是我们	-9.96441
哥	-9.96474
▁industry	-9.96474
▁With	-9.96475
cho	-9.96511
寻	-9.96562
述	-9.96618
改	-9.9663
银行	-9.96652
▁micro	-9.96677
消失	-9.96689
开放	-9.96795
▁site	-9.96797
▁Europe	-9.96843
质量	-9.96868
▁conversation	-9.96881
运作	-9.96912
我说	-9.97006
势	-9.97045
▁da	-9.97055
显然	-9.9709
▁showed	-9.97093
表面	-9.97112
▁online	-9.97259
▁discovered	-9.97289
▁subject	-9.9729
介绍	-9.9729
▁join	-9.97291
▁among	-9.973
▁star	-9.97314
运用	-9.97372
▁robot	-9.9739
亮	-9.97493
箱	-9.97495
▁attack	-9.97496
较	-9.975
这项	-9.97507
楼	-9.97618
▁photo	-9.97697
▁By	-9.97731
▁在这个	-9.9774
ki	-9.9781
cor	-9.9782
▁60	-9.97898
很有	-9.97898
追	-9.979
滑	-9.97906
危机	-9.97915
地球上	-9.97926
考	-9.98106
▁card	-9.98107
洗	-9.98112
表明	-9.9814
临	-9.98247
两种	-9.98268
▁African	-9.98275
▁concept	-9.98319
▁journey	-9.98319
▁Ne	-9.9836
ped	-9.98366
▁pain	-9.98487
▁listen	-9.98498
这是一个	-9.98512
▁modern	-9.98526
▁creating	-9.98526
▁mine	-9.98575
联	-9.98616
▁baby	-9.98734
接触	-9.98744
▁teach	-9.98746
ze	-9.9876
2000	-9.98805
麦	-9.98834
▁ice	-9.98845
富	-9.98869
哪里	-9.98883
允许	-9.98941
美国人	-9.98945
花了	-9.98983
▁使	-9.98999
▁recently	-9.99016
▁Bu	-9.99068
或许	-9.99142
乱	-9.99146
坦	-9.99149
归	-9.99149
fu	-9.99208
▁girls	-9.99215
结合	-9.99217
对此	-9.99333
审	-9.99358
▁improve	-9.99358
▁capital	-9.99359
了一些	-9.99415
▁perfect	-9.99431
感受	-9.99432
▁developing	-9.99439
ft	-9.99459
300	-9.9946
▁resources	-9.99467
那时	-9.99486
▁我们也	-9.9949
政	-9.99561
的力量	-9.99628
基于	-9.99669
也没有	-9.99707
注意	-9.99773
▁screen	-9.99777
神奇	-9.99794
男孩	-9.99842
▁follow	-9.99874
其中的	-9.9988
rate	-9.99905
pan	-9.99955
秒	-9.99984
▁Si	-10.0003
▁North	-10.0004
变成了	-10.0007
人民	-10.0013
太多	-10.0014
这次	-10.0016
男性	-10.0017
▁engage	-10.002
患者	-10.0024
影	-10.0031
▁interest	-10.0033
项	-10.0036
▁foot	-10.0037
企业	-10.0037
是有	-10.0039
my	-10.0039
▁truth	-10.0041
馆	-10.0041
25	-10.0045
▁patient	-10.0048
段	-10.0053
菌	-10.0062
有多	-10.0063
ose	-10.0065
ium	-10.0067
压力	-10.0067
▁trans	-10.007
是很	-10.0075
ging	-10.0076
izing	-10.0079
time	-10.0081
餐	-10.0081
▁evidence	-10.0083
▁sold	-10.0086
▁plant	-10.0087
即	-10.0088
空气	-10.0088
转变	-10.0088
ome	-10.01
▁美国	-10.0112
给你们	-10.0114
美好	-10.0115
▁designed	-10.0117
中间	-10.0122
园	-10.0123
▁major	-10.0123
我们就	-10.0124
▁available	-10.0126
成本	-10.0143
怪	-10.0144
几年	-10.0145
▁我们有	-10.0146
旧	-10.0147
距离	-10.0147
细菌	-10.0147
▁yes	-10.0152
鼓掌	-10.0159
这个世界	-10.016
cul	-10.0164
洞	-10.0168
恐	-10.0168
沉	-10.0168
去年	-10.017
序	-10.0176
进步	-10.0176
还没有	-10.0182
是为了	-10.0183
▁Ja	-10.0184
偏	-10.0188
▁medical	-10.019
件事	-10.0192
▁9	-10.0195
或是	-10.0197
得到了	-10.0206
▁especially	-10.0211
对我来说	-10.0214
目前	-10.0216
▁gene	-10.0216
form	-10.0218
▁bus	-10.0221
我们应该	-10.0225
99	-10.0231
一系列	-10.0233
▁tiny	-10.0233
▁agree	-10.0234
人类的	-10.0237
▁playing	-10.0237
▁如果我	-10.0237
▁interact	-10.0239
▁然后我们	-10.025
棒	-10.025
▁而这	-10.0251
透	-10.0253
▁incredibly	-10.0254
▁sleep	-10.0254
编	-10.0266
▁asking	-10.0272
▁response	-10.0276
一直在	-10.028
▁effective	-10.0288
背	-10.0292
▁search	-10.0298
给大家	-10.0299
谢谢	-10.03
权利	-10.031
eep	-10.0312
iv	-10.0312
动作	-10.0313
破	-10.0316
tch	-10.0317
出生	-10.0319
苏	-10.0319
▁recognize	-10.0319
▁involved	-10.0329
▁Wa	-10.0334
折	-10.0341
观点	-10.0342
▁door	-10.0345
▁cars	-10.0346
我们对	-10.0348
▁basic	-10.0361
▁我也	-10.0362
一名	-10.0362
▁bigger	-10.0367
二十	-10.0369
▁code	-10.0374
▁gives	-10.0377
创作	-10.0383
▁success	-10.0383
义	-10.0387
▁Ju	-10.0389
是非常	-10.0394
bb	-10.0398
左	-10.04
▁path	-10.0401
▁predict	-10.0406
▁revolution	-10.0406
▁changing	-10.0407
的新	-10.0412
▁wind	-10.0415
▁这就	-10.042
套	-10.0423
art	-10.0424
粉	-10.0427
森	-10.0427
her	-10.0432
▁collect	-10.0461
含	-10.047
脱	-10.0472
碳	-10.0472
▁prison	-10.0472
是关于	-10.0473
▁wish	-10.0475
有些人	-10.0477
之中	-10.0489
▁drug	-10.0489
当中	-10.0491
持	-10.0492
鸟	-10.0493
静	-10.0493
角色	-10.0496
▁不管	-10.05
grad	-10.0503
▁song	-10.0507
所有人	-10.0508
状	-10.0513
责任	-10.0514
j	-10.0517
贴	-10.0517
颜色	-10.0517
艺术家	-10.0527
▁谢谢	-10.0535
遇	-10.0536
蒙	-10.0539
感染	-10.0539
▁digital	-10.0539
的社会	-10.0549
▁Se	-10.0556
▁hundred	-10.0557
牌	-10.056
/	-10.0561
酷	-10.0561
对我	-10.0562
▁appear	-10.0562
▁reasons	-10.0564
▁因为他们	-10.0564
话题	-10.0583
剂	-10.0583
▁vision	-10.0583
规则	-10.0586
雨	-10.0627
▁role	-10.0631
Oh	-10.0635
还在	-10.0639
积	-10.0642
▁作为	-10.0643
从未	-10.0646
▁achieve	-10.065
▁beyond	-10.065
称之为	-10.065
▁carbon	-10.065
▁list	-10.0652
▁towards	-10.0655
▁putting	-10.0663
▁她们	-10.0671
缺	-10.0673
工业	-10.0675
▁Yes	-10.069
正确的	-10.069
▁scientific	-10.0696
▁feed	-10.0704
ham	-10.0705
种族	-10.0712
上了	-10.0712
所有这些	-10.0714
▁groups	-10.0715
ka	-10.0716
店	-10.0717
摩	-10.0718
▁progress	-10.0718
侵	-10.0718
▁several	-10.0718
▁trust	-10.0718
监狱	-10.0718
西方	-10.0731
▁slow	-10.0732
监	-10.0739
▁month	-10.074
▁Chinese	-10.0741
奶	-10.0741
枪	-10.0741
智慧	-10.0741
婴儿	-10.0741
▁solar	-10.0741
▁我们就	-10.0741
投入	-10.0743
一代	-10.0754
▁sent	-10.076
价	-10.076
证	-10.076
▁First	-10.0763
▁writing	-10.0763
幸运	-10.0765
400	-10.0768
rap	-10.077
并非	-10.0771
关心	-10.0773
大量	-10.0785
▁connection	-10.0785
▁lived	-10.0788
花费	-10.0789
▁prop	-10.0792
速度	-10.0792
我也	-10.0793
▁computers	-10.0794
撞	-10.0809
状况	-10.0809
▁我们必须	-10.0811
▁第二	-10.0812
ey	-10.0814
规	-10.082
可以在	-10.0822
▁flow	-10.0822
▁看看	-10.0823
就有	-10.083
给他们	-10.0831
han	-10.0839
▁我们要	-10.0841
体系	-10.0856
▁haven	-10.086
▁national	-10.0861
构	-10.0873
判	-10.0877
废	-10.0877
▁moral	-10.0878
▁drugs	-10.0883
▁Un	-10.0898
注意到	-10.0901
load	-10.0908
都能	-10.0911
▁正如	-10.0923
奖	-10.0923
▁benefit	-10.0923
一件事	-10.0937
▁dog	-10.094
是从	-10.0944
怀	-10.0946
呼	-10.0946
▁breath	-10.0947
建议	-10.0948
▁nine	-10.0948
van	-10.095
条件	-10.0951
▁8	-10.0954
发出	-10.0954
▁而我	-10.0956
ack	-10.0958
年轻人	-10.0958
▁depend	-10.0969
挺	-10.097
成长	-10.0971
装置	-10.0972
是怎么	-10.0972
处于	-10.0973
不想	-10.0979
备	-10.0991
▁现在我们	-10.0992
的朋友	-10.0999
▁pictures	-10.1004
取得	-10.1005
▁scar	-10.1007
▁cat	-10.1009
环	-10.1015
特殊	-10.1016
一群	-10.1019
▁store	-10.1022
ned	-10.1029
rus	-10.1034
▁throw	-10.104
相反	-10.104
的名字	-10.104
▁可能	-10.104
形状	-10.1041
有趣的	-10.1041
在那	-10.1046
▁transform	-10.1059
善	-10.1061
•	-10.1063
▁visit	-10.1063
▁favorite	-10.1063
彼此	-10.1063
▁dec	-10.1065
晚上	-10.1072
▁于是我	-10.1076
▁died	-10.1079
▁都是	-10.1083
一份	-10.1084
ably	-10.1086
▁speed	-10.1086
▁clean	-10.1086
0,000	-10.1091
▁lose	-10.1094
医学	-10.1103
官	-10.1104
▁bank	-10.1106
▁likely	-10.1108
▁software	-10.111
威胁	-10.111
众	-10.1115
同事	-10.1122
史	-10.1123
for	-10.1125
No	-10.1126
和平	-10.1128
控	-10.1128
▁communities	-10.1133
玛	-10.1133
▁position	-10.1133
▁stick	-10.1136
▁genetic	-10.1137
告诉你们	-10.1148
公民	-10.1148
都知道	-10.1148
▁wait	-10.1153
旅	-10.1153
▁bird	-10.1157
像是	-10.1158
▁那时	-10.1161
▁80	-10.1165
降	-10.1168
fe	-10.1172
ew	-10.1174
▁nation	-10.1177
克里斯	-10.1177
圆	-10.118
▁price	-10.1181
▁最终	-10.1185
以来	-10.1185
gan	-10.1187
没有任何	-10.1191
▁becomes	-10.1194
▁只要	-10.1198
情绪	-10.1204
▁这是个	-10.1214
版	-10.1219
▁又	-10.122
▁flu	-10.122
ib	-10.1223
▁evolution	-10.1227
弗	-10.1228
▁anybody	-10.1228
▁After	-10.1228
▁Even	-10.1228
▁fight	-10.1229
降低	-10.1229
表示	-10.1237
▁pen	-10.1237
▁near	-10.124
巨	-10.1248
set	-10.125
伴	-10.1252
逃	-10.1252
一步	-10.1263
我所	-10.1268
X	-10.1269
▁Maybe	-10.1275
慢	-10.1275
▁return	-10.1276
肢	-10.1276
▁cross	-10.1276
▁Man	-10.1277
测量	-10.1279
物体	-10.129
第二个	-10.1298
副	-10.13
▁quality	-10.13
▁successful	-10.1301
▁park	-10.1305
aw	-10.1313
潜	-10.1314
库	-10.1314
▁War	-10.1319
▁draw	-10.132
争	-10.1321
▁account	-10.1324
▁remain	-10.1324
见到	-10.1324
▁我们现在	-10.1326
都可以	-10.1335
▁son	-10.1336
▁fo	-10.1341
这儿	-10.1342
▁如何	-10.1343
▁meaning	-10.1345
▁block	-10.135
母	-10.1353
top	-10.1353
▁offer	-10.1364
案	-10.1365
迫	-10.137
成为了	-10.1371
余	-10.1372
总统	-10.1372
▁particularly	-10.1374
特定	-10.1384
才是	-10.1386
▁我可以	-10.139
丽	-10.1394
graph	-10.1394
一块	-10.1395
▁practice	-10.1396
碎	-10.1396
▁virus	-10.1396
▁onto	-10.1397
所在	-10.1399
很大的	-10.1399
ically	-10.1411
对话	-10.1412
内容	-10.1417
票	-10.1419
的设计	-10.142
▁peace	-10.142
痛苦	-10.142
专业	-10.1422
角度	-10.1422
感谢	-10.1435
▁certainly	-10.1443
患	-10.1443
▁higher	-10.1444
交通	-10.1447
▁sounds	-10.1449
博	-10.1467
tter	-10.1468
▁有些	-10.147
思维	-10.147
▁Ri	-10.1478
英	-10.1478
再次	-10.1485
响	-10.1493
记得	-10.1493
▁violence	-10.1493
有意思	-10.1494
展	-10.1495
刚才	-10.1497
ah	-10.1497
▁fund	-10.1498
很好的	-10.1502
▁就在	-10.1503
▁aren	-10.1513
men	-10.1515
苦	-10.1517
▁我们会	-10.152
每次	-10.1523
见过	-10.1527
▁rules	-10.1528
大小	-10.1541
▁molecule	-10.1542
股	-10.1542
▁biggest	-10.1542
▁multi	-10.1546
移	-10.1551
▁skin	-10.1553
怎么样	-10.1554
有趣	-10.1558
▁hot	-10.1564
细	-10.1565
喝	-10.1567
差不多	-10.1567
▁adult	-10.1567
塑料	-10.1567
......	-10.1568
互动	-10.157
▁Who	-10.1575
45	-10.1576
pro	-10.1578
▁接下来	-10.1578
非常重要	-10.1582
所说的	-10.1585
香	-10.1591
相似	-10.1592
▁largest	-10.1593
把这些	-10.1594
内部	-10.1595
▁showing	-10.1604
借	-10.1615
▁further	-10.1616
避免	-10.1616
▁walking	-10.1622
▁obviously	-10.1625
▁treatment	-10.1628
▁moved	-10.163
望	-10.1635
硬	-10.1641
▁deliver	-10.1641
▁medicine	-10.1641
wood	-10.1641
属于	-10.1645
▁direction	-10.1647
▁totally	-10.1651
We	-10.1654
ified	-10.1655
▁后来	-10.1659
学会	-10.1663
▁compassion	-10.1665
▁exciting	-10.1665
▁okay	-10.1665
先生	-10.1666
看上去	-10.1666
好像	-10.1666
害怕	-10.1666
ana	-10.1671
下降	-10.1676
▁Oh	-10.1681
和其他	-10.1687
醒	-10.1689
家伙	-10.1694
另外	-10.1698
car	-10.1701
▁Where	-10.1705
右	-10.1713
▁member	-10.1715
确定	-10.1718
▁Ka	-10.1719
▁那里	-10.1722
af	-10.1731
陆	-10.1732
的观点	-10.1735
舞	-10.1739
冲突	-10.1741
份	-10.1749
校	-10.1762
▁我就	-10.1764
弱	-10.1765
▁drop	-10.1766
需	-10.1775
负责	-10.1786
儿子	-10.1786
的感觉	-10.1787
回家	-10.1787
▁hour	-10.1788
生长	-10.1794
▁partner	-10.1797
想象一下	-10.1798
讲述	-10.1798
态	-10.1801
识	-10.1802
很棒	-10.1805
范围	-10.1813
蒂	-10.1816
赞	-10.1816
▁creative	-10.1816
▁threat	-10.1816
我自己	-10.1816
生命的	-10.1817
独立	-10.1817
▁finding	-10.1821
▁6	-10.1823
因此	-10.1826
首先	-10.1827
积极	-10.1831
吸	-10.1833
一个小	-10.1836
只要	-10.1836
散	-10.1838
快速	-10.1839
▁leaders	-10.1839
痛	-10.184
牙	-10.1841
浮	-10.1841
秀	-10.1841
资金	-10.1845
▁好吧	-10.1845
▁fit	-10.1845
▁extremely	-10.1849
▁materials	-10.1855
▁bat	-10.186
长大	-10.186
互相	-10.186
突	-10.1864
▁fix	-10.1866
岁的	-10.1867
▁count	-10.1873
懂	-10.1879
设计的	-10.1889
相关	-10.1889
▁student	-10.189
青	-10.1892
是这样	-10.1893
▁因为它	-10.1898
low	-10.1902
▁Dr	-10.1902
▁signal	-10.1906
的过程	-10.1915
▁police	-10.1917
▁element	-10.1917
屏幕	-10.1917
▁magic	-10.1917
这条	-10.1918
居住	-10.1926
设计师	-10.1926
▁hum	-10.1936
len	-10.1936
蓝	-10.1941
▁shift	-10.1943
糖	-10.1943
▁detail	-10.1943
▁everywhere	-10.1943
艾滋病	-10.1943
巨大	-10.1951
这个项目	-10.1958
▁cap	-10.1961
丹	-10.1968
▁nobody	-10.1968
保证	-10.1969
蓝色	-10.1969
家里	-10.197
▁waste	-10.197
rk	-10.1971
假如	-10.1972
什么样的	-10.1977
▁plants	-10.1986
▁schools	-10.1989
彩	-10.1993
幻	-10.1993
朝	-10.1994
世界各地	-10.1994
lum	-10.1995
别的	-10.1996
▁ready	-10.2001
床	-10.2019
蜂	-10.2019
博物馆	-10.2019
疯狂	-10.202
文章	-10.202
的第一	-10.2028
▁teachers	-10.2032
出去	-10.2034
▁watching	-10.2034
货	-10.2045
阴	-10.2045
▁choose	-10.2045
▁version	-10.2045
▁warm	-10.2045
竞争	-10.2045
设	-10.2048
▁hole	-10.2049
有一天	-10.2055
ame	-10.2057
说过	-10.2059
▁另外	-10.206
▁results	-10.2064
镜	-10.2066
▁而我们	-10.2067
来自于	-10.2069
▁secret	-10.2071
阅读	-10.2071
▁discover	-10.2073
价格	-10.2073
ivity	-10.2074
▁mental	-10.2077
aging	-10.2082
找到了	-10.209
严	-10.2095
泡	-10.2096
▁chemical	-10.2097
▁context	-10.2097
▁security	-10.2097
适应	-10.21
让它	-10.211
居	-10.2112
他说	-10.2116
rge	-10.2116
▁mountain	-10.2123
烟	-10.2123
▁notice	-10.2123
群体	-10.2124
停止	-10.2124
▁standard	-10.2124
▁fill	-10.2124
生活中	-10.2127
且	-10.2135
▁para	-10.2137
收到	-10.2145
这张	-10.2145
运行	-10.2148
补	-10.2149
接近	-10.2151
早期	-10.2152
太空	-10.2156
▁包括	-10.2161
▁11	-10.2162
▁eventually	-10.2175
都没有	-10.2178
而不是	-10.2181
集中	-10.2183
▁crazy	-10.2201
气候	-10.2201
操作	-10.2202
▁这是我们	-10.2205
▁tree	-10.2207
▁Ni	-10.2208
▁allowed	-10.2212
▁meeting	-10.2212
rew	-10.2216
▁rock	-10.2226
▁link	-10.223
▁ball	-10.2231
▁Most	-10.2231
系	-10.2233
仅仅是	-10.224
限制	-10.2241
威	-10.2249
欧	-10.2254
爬	-10.2254
警察	-10.2254
我们现在	-10.2256
!"	-10.2268
mar	-10.2278
wo	-10.2279
广告	-10.2281
发表	-10.2287
什么是	-10.2288
▁supposed	-10.2288
▁male	-10.2291
这些东西	-10.2297
▁examples	-10.2297
▁San	-10.23
星球	-10.2306
▁perspective	-10.2307
杂志	-10.2307
必	-10.231
我可以	-10.2315
规模	-10.2318
一部分	-10.2321
▁individuals	-10.2324
▁John	-10.2327
你就	-10.2328
决	-10.233
供	-10.2331
瓶	-10.2333
▁prevent	-10.2333
证据	-10.2333
▁train	-10.2334
▁fine	-10.2335
▁pattern	-10.2341
▁carry	-10.2342
▁connected	-10.2346
engineer	-10.2348
我知道	-10.235
▁named	-10.2357
兴趣	-10.2358
宝	-10.2359
▁fuel	-10.236
▁ran	-10.2361
这类	-10.2363
像这样	-10.2367
▁emotion	-10.2368
▁thousand	-10.2369
物理	-10.2372
ologist	-10.238
不一样	-10.2385
谷	-10.2386
▁conflict	-10.2386
▁positive	-10.2386
明显	-10.2386
▁grew	-10.2389
女士	-10.2389
隔	-10.2396
like	-10.2396
会被	-10.2398
围	-10.2411
▁college	-10.2413
▁laugh	-10.2413
叶	-10.2413
逐渐	-10.2413
▁shot	-10.2414
是怎样	-10.2417
▁他们会	-10.2421
▁或许	-10.2428
看待	-10.2435
疑	-10.2438
乘	-10.244
峰	-10.244
沃	-10.244
的所有	-10.2441
▁Pe	-10.2446
引起	-10.2457
▁letter	-10.246
5%	-10.246
很大	-10.246
遗	-10.2466
杂	-10.2466
邀请	-10.2467
阻止	-10.2467
信仰	-10.2467
▁trial	-10.2468
神经元	-10.2468
ney	-10.2488
途	-10.2494
▁check	-10.2494
▁essentially	-10.2499
的身体	-10.2506
rry	-10.2506
行业	-10.2514
模	-10.2517
迹	-10.252
衣	-10.252
云	-10.2521
▁sky	-10.2521
火星	-10.2524
许	-10.2537
在过去	-10.2543
未来的	-10.2544
的演讲	-10.2546
说话	-10.2549
的角度	-10.255
▁Hu	-10.2552
的生命	-10.2557
不幸	-10.2557
四个	-10.2559
真实的	-10.2568
▁trees	-10.257
▁bed	-10.2573
▁international	-10.2575
▁accept	-10.2575
模拟	-10.2575
武器	-10.2576
背景	-10.2576
的关系	-10.2577
▁extraordinary	-10.2577
理由	-10.2582
▁shown	-10.2591
▁traditional	-10.2597
劳	-10.2598
▁farm	-10.26
猎	-10.2602
▁poverty	-10.2602
雪	-10.2602
▁worse	-10.2603
破坏	-10.2603
红色	-10.2605
利益	-10.2606
严重	-10.2611
没人	-10.2613
良	-10.2616
广	-10.2626
▁West	-10.2627
▁families	-10.263
末	-10.263
▁bunch	-10.263
漂亮	-10.263
stream	-10.263
▁reduce	-10.263
▁led	-10.2632
ept	-10.2641
▁我们还	-10.2645
▁address	-10.2657
课程	-10.2658
教授	-10.2658
年龄	-10.266
的机会	-10.2663
的目标	-10.2665
work	-10.2669
▁serious	-10.2671
▁games	-10.2677
▁Th	-10.268
避	-10.2684
▁bacteria	-10.2685
办公室	-10.2685
鞋	-10.2685
▁memory	-10.2685
呼吸	-10.2685
▁wealth	-10.2685
▁wave	-10.2686
哪些	-10.2686
不够	-10.2688
▁objects	-10.2691
你必须	-10.2705
▁tool	-10.2707
▁lower	-10.271
▁wife	-10.2712
▁detect	-10.2713
下一个	-10.2717
学院	-10.2724
损	-10.2739
▁democracy	-10.274
▁taught	-10.274
戴	-10.274
▁square	-10.274
财富	-10.274
我想要	-10.2749
▁也是	-10.2753
消息	-10.2756
忘	-10.2756
14	-10.2758
是谁	-10.2761
聊	-10.2764
贵	-10.2767
▁including	-10.2767
▁please	-10.2767
猫	-10.2767
若	-10.2767
▁zero	-10.2768
相对	-10.2768
年里	-10.2769
▁rain	-10.277
卫生	-10.277
每一	-10.2774
▁Ta	-10.2782
▁decision	-10.2785
也能	-10.2791
▁Pro	-10.2793
胜	-10.2793
▁robots	-10.2794
▁explore	-10.2795
▁above	-10.2796
老鼠	-10.2797
▁projects	-10.2804
▁factor	-10.2805
▁models	-10.2806
后来	-10.2807
▁faster	-10.2813
▁doctor	-10.2814
mission	-10.2818
press	-10.2822
▁survive	-10.2823
帕	-10.2823
▁somewhere	-10.2823
菲	-10.2823
▁slide	-10.2823
听起来	-10.2834
一些人	-10.2844
礼	-10.2849
▁happiness	-10.2851
省	-10.2851
统计	-10.2851
社交	-10.2858
我们能够	-10.2859
▁如今	-10.2862
▁minute	-10.2871
cop	-10.2877
gram	-10.2877
诚	-10.2879
▁excited	-10.2879
谱	-10.2879
▁equal	-10.2881
right	-10.2883
▁teacher	-10.2886
什么呢	-10.2886
▁21	-10.2888
这位	-10.2893
▁我们已经	-10.2894
▁17	-10.2895
▁critical	-10.2898
心理	-10.2903
相比	-10.2905
▁principle	-10.2907
▁task	-10.2907
▁Car	-10.291
▁suddenly	-10.2915
▁16	-10.2915
接下来	-10.2918
我们必须	-10.2924
▁meant	-10.2924
情感	-10.2928
批	-10.2935
▁release	-10.2935
▁你就	-10.2938
成员	-10.2938
相同的	-10.2938
ef	-10.2942
的样子	-10.2947
一生	-10.2948
来源	-10.2952
▁killed	-10.2955
这样一个	-10.2959
▁jobs	-10.2961
访	-10.2963
拯救	-10.2964
▁expert	-10.2964
▁Don	-10.2964
认知	-10.2965
旅行	-10.2967
的变化	-10.2969
个小时	-10.2981
▁larger	-10.2982
ai	-10.2984
zz	-10.2984
额	-10.2989
童	-10.299
习惯	-10.2992
▁Those	-10.2992
▁activity	-10.2993
结论	-10.2994
跟我	-10.2995
情况下	-10.2995
▁dance	-10.2997
另外一个	-10.2997
温度	-10.2999
部门	-10.2999
▁conditions	-10.3011
埃	-10.3019
▁plastic	-10.302
▁respond	-10.302
▁content	-10.302
同意	-10.3022
cer	-10.3022
▁Today	-10.3022
▁从而	-10.3026
我已经	-10.3033
▁比如说	-10.3034
▁career	-10.3036
是最	-10.3041
禁	-10.3048
胡	-10.3049
▁female	-10.3049
丁	-10.3049
▁ended	-10.3049
搜索	-10.3049
▁allows	-10.3053
▁14	-10.3058
▁engine	-10.306
是这样的	-10.3063
▁这也是	-10.3064
获	-10.3065
之处	-10.3071
杯	-10.3077
▁crisis	-10.3077
恢复	-10.3077
方案	-10.3078
▁Cha	-10.3081
失去	-10.3095
我们已经	-10.3101
探	-10.3105
尾	-10.3105
▁enjoy	-10.3106
疫苗	-10.3106
▁blind	-10.3106
▁window	-10.3107
放到	-10.3112
成功的	-10.3113
一边	-10.3114
家人	-10.3114
智能	-10.3115
任何人	-10.3119
▁board	-10.3124
▁standing	-10.3127
可以用	-10.3133
年后	-10.3133
不好	-10.3133
罪	-10.3134
误	-10.3134
残	-10.3134
▁truly	-10.3135
仔细	-10.3135
▁bomb	-10.3135
平衡	-10.3136
自动	-10.3141
过了	-10.3145
即使	-10.3155
▁famous	-10.3164
尖	-10.3164
犯罪	-10.3164
▁indeed	-10.3165
35	-10.3174
▁genes	-10.3176
大家都	-10.3179
面前	-10.3184
针对	-10.3184
留下	-10.3185
增	-10.3185
公开	-10.3187
节目	-10.3187
内心	-10.3188
章	-10.3191
桥	-10.3192
鼓励	-10.3192
▁floor	-10.3192
差异	-10.3193
常常	-10.3194
爆炸	-10.3194
还能	-10.3199
的学生	-10.3206
egr	-10.3211
gh	-10.3212
▁impossible	-10.3221
不可思议	-10.3221
▁rise	-10.3227
私	-10.3229
巧	-10.3232
马上	-10.3234
我们自己	-10.3241
▁complicated	-10.3251
蚂蚁	-10.3251
工程师	-10.3252
其实是	-10.3254
核心	-10.3258
▁specific	-10.3259
一切都	-10.3264
▁rep	-10.3264
▁cold	-10.3265
lon	-10.3266
meter	-10.327
▁同样	-10.3279
龙	-10.3279
▁afford	-10.328
▁burn	-10.328
▁extra	-10.3286
灵	-10.3303
▁older	-10.3304
tech	-10.3308
辑	-10.3308
▁website	-10.3309
放弃	-10.331
身边	-10.3316
不太	-10.3322
来了	-10.3322
16	-10.3324
做得	-10.333
▁我们知道	-10.333
上升	-10.3333
袋	-10.3337
▁kept	-10.3338
文字	-10.3342
▁reading	-10.3343
排放	-10.3343
▁我们发现	-10.3347
▁我相信	-10.3348
固	-10.3366
软	-10.3366
跨	-10.3366
麻	-10.3367
健	-10.3368
英语	-10.3369
身份	-10.337
记住	-10.3371
今年	-10.3375
不起	-10.3377
▁lesson	-10.3379
▁ship	-10.338
所谓的	-10.3382
否	-10.3382
▁manage	-10.3386
▁我们将	-10.3388
将要	-10.339
其中一个	-10.3395
范	-10.3397
啦	-10.3397
▁military	-10.3397
▁studies	-10.3397
▁jump	-10.3397
▁cases	-10.3398
▁service	-10.3399
报道	-10.3403
▁serve	-10.3404
享受	-10.3406
好吧	-10.3418
▁original	-10.3424
饭	-10.3427
▁我们都	-10.3427
稳定	-10.3427
改善	-10.3427
在哪里	-10.3428
▁finger	-10.3428
▁每个	-10.3431
权力	-10.344
▁complete	-10.3443
▁HIV	-10.3453
输	-10.3453
▁policy	-10.3456
▁freedom	-10.3456
▁relate	-10.3457
太阳能	-10.3464
▁Chi	-10.3469
页	-10.3477
大型	-10.3484
▁Look	-10.3484
偷	-10.3486
忍	-10.3486
人群	-10.3487
这只	-10.3489
把他们	-10.3489
亿美元	-10.349
层面	-10.3499
75	-10.3513
▁这不是	-10.3514
睡	-10.3515
▁nuclear	-10.3516
理念	-10.3518
▁TV	-10.3519
ker	-10.3519
把我	-10.352
▁pack	-10.3521
卫星	-10.3525
日本	-10.3526
不管	-10.3527
找出	-10.3531
一个非常	-10.3532
而是	-10.3532
▁products	-10.3541
星系	-10.3543
▁private	-10.3546
脉	-10.3546
依赖	-10.3546
▁wild	-10.3546
诊断	-10.3546
燃料	-10.3546
循环	-10.3548
主题	-10.3549
的作品	-10.3552
建设	-10.3553
如果我	-10.3562
ero	-10.3567
▁70	-10.3569
不只是	-10.3573
air	-10.3573
▁workers	-10.3574
噢	-10.3576
莫	-10.3576
▁usually	-10.3576
给予	-10.3577
▁training	-10.3577
文明	-10.358
变得更	-10.3588
坚	-10.3604
!”	-10.3606
镇	-10.3606
▁communication	-10.3606
▁dangerous	-10.3607
▁East	-10.3615
这段	-10.3627
的项目	-10.3628
▁purpose	-10.3636
承认	-10.3637
演奏	-10.3637
原始	-10.3637
公园	-10.3638
▁range	-10.3655
最好	-10.3662
▁financial	-10.3667
▁series	-10.3667
▁Like	-10.3669
打算	-10.3672
成果	-10.3673
ari	-10.369
把这个	-10.3695
▁temperature	-10.3697
▁typical	-10.3697
▁massive	-10.3702
正确	-10.3705
▁auto	-10.3712
board	-10.3714
▁significant	-10.3727
▁pressure	-10.3728
▁sat	-10.3731
▁limit	-10.3732
女儿	-10.3732
▁stars	-10.3734
▁X	-10.3736
▁Mu	-10.3739
▁lie	-10.3747
▁relative	-10.3758
呆	-10.3758
诸	-10.3758
鸡	-10.3758
▁somehow	-10.3758
谷歌	-10.3759
妻子	-10.3759
一百	-10.3762
▁alive	-10.3763
▁decide	-10.3764
就要	-10.3765
终于	-10.3767
▁除了	-10.3772
一台	-10.3774
▁Du	-10.3777
▁smaller	-10.3782
动力	-10.3784
一个问题	-10.3785
顺	-10.3785
13	-10.3787
▁unique	-10.3789
潮	-10.3789
▁anymore	-10.3789
熟悉	-10.3789
驾驶	-10.3789
贫困	-10.3789
免费	-10.379
▁electricity	-10.379
最高	-10.3791
▁term	-10.3794
▁wide	-10.3795
这些问题	-10.3812
妙	-10.3817
▁advance	-10.382
▁daughter	-10.382
名字	-10.3825
止	-10.3832
称为	-10.3832
多么	-10.3836
个体	-10.3836
原子	-10.3842
▁race	-10.3843
也就是	-10.3847
▁strange	-10.3848
发生了什么	-10.385
食品	-10.3853
对待	-10.3866
▁current	-10.3868
桌	-10.3875
kin	-10.3877
stitution	-10.388
阿富汗	-10.3881
谈谈	-10.3884
很容易	-10.3891
▁poll	-10.3898
▁bone	-10.3899
检测	-10.3906
难以	-10.3907
做过	-10.3911
体内	-10.3912
羊	-10.3912
▁effort	-10.3912
▁urban	-10.3912
贫穷	-10.3913
培养	-10.3913
包含	-10.3915
信任	-10.3915
帮助我们	-10.3916
▁可是	-10.3924
150	-10.393
的速度	-10.3936
▁upon	-10.3942
▁respect	-10.3944
▁yeah	-10.3944
必要	-10.3944
报告	-10.3945
交易	-10.3945
一片	-10.3947
的位置	-10.3947
是如此	-10.3952
▁trade	-10.3952
你想	-10.3969
▁scan	-10.3975
ough	-10.3982
观念	-10.3994
▁actual	-10.3994
混	-10.3999
迈	-10.4006
▁document	-10.4006
污染	-10.4006
▁Are	-10.4006
▁charge	-10.4006
▁organism	-10.4007
▁raise	-10.4012
比赛	-10.4014
做的事情	-10.4016
这两个	-10.4016
流行	-10.4022
面包	-10.4023
松	-10.4037
喷	-10.4038
▁biology	-10.4038
▁becoming	-10.4038
▁roll	-10.4041
巴西	-10.4043
具体	-10.4043
▁现在我	-10.4047
▁我开始	-10.4048
▁decisions	-10.4049
原则	-10.4057
▁目前	-10.406
似	-10.4065
的未来	-10.4069
▁enormous	-10.4069
▁physics	-10.4069
障碍	-10.4069
确保	-10.4069
rr	-10.407
dependent	-10.4071
的概念	-10.4074
重复	-10.4074
▁mom	-10.4093
▁minds	-10.4097
癌	-10.41
博士	-10.4102
因为我	-10.4102
▁income	-10.4102
采取	-10.4102
千万	-10.4105
▁cook	-10.4105
除了	-10.411
长期	-10.411
▁我不知道	-10.4114
参	-10.4114
angle	-10.4122
pped	-10.4123
of	-10.4125
也不是	-10.4128
▁environmental	-10.4129
各个	-10.413
▁rule	-10.4131
隐	-10.4132
▁creature	-10.4133
▁written	-10.4133
乌	-10.4133
▁math	-10.4135
直到	-10.4136
▁rat	-10.4139
左右	-10.414
▁solutions	-10.4143
▁healthy	-10.4144
▁13	-10.4147
使我们	-10.4148
将来	-10.4149
▁patterns	-10.4155
延	-10.4164
▁argument	-10.4164
▁expensive	-10.4164
气候变化	-10.4165
创建	-10.4166
后面	-10.4175
▁skills	-10.4177
扫描	-10.4196
矿	-10.4196
究竟	-10.4196
▁town	-10.42
也不会	-10.4207
好处	-10.4209
息	-10.4225
咖啡	-10.4228
搬	-10.4228
▁anywhere	-10.4228
▁trick	-10.4229
坚持	-10.4229
ley	-10.4229
这张照片	-10.423
▁Vi	-10.423
左边	-10.4231
这个词	-10.4233
1000	-10.4236
之所以	-10.4238
户	-10.4239
▁你可以看到	-10.4243
▁或者是	-10.4248
▁prove	-10.4248
闻	-10.4254
▁reflect	-10.4261
▁virtual	-10.4261
寄	-10.4261
针	-10.427
从来没有	-10.4275
▁unit	-10.4276
怎么做	-10.4277
到处	-10.4284
之外	-10.4288
悲	-10.4292
ological	-10.4292
兹	-10.4293
▁cloud	-10.4293
▁neighborhood	-10.4293
磁	-10.4293
电池	-10.4294
▁尤其是	-10.4296
▁camp	-10.4297
两年	-10.4298
▁waiting	-10.4298
还可以	-10.4303
只需要	-10.4311
很少	-10.4317
Twitter	-10.4325
▁brother	-10.4325
▁convince	-10.4325
▁target	-10.4325
▁bodies	-10.4325
▁instance	-10.4325
消耗	-10.4326
器官	-10.4328
无论	-10.4328
▁loved	-10.4336
制度	-10.4339
▁leg	-10.4341
理想	-10.4342
区别	-10.4344
▁civil	-10.4357
efficient	-10.4358
▁earlier	-10.4358
▁architecture	-10.4358
创造了	-10.4359
的一切	-10.4365
位于	-10.4367
不仅仅	-10.4387
这个故事	-10.4388
肿瘤	-10.439
丢	-10.439
▁remind	-10.439
yo	-10.4391
▁press	-10.4391
农业	-10.4391
元素	-10.4391
最初	-10.4394
采用	-10.4399
▁weren	-10.4399
▁paint	-10.4407
想知道	-10.4412
▁intelligence	-10.4423
▁worry	-10.4423
工厂	-10.4424
▁institutions	-10.4424
有所	-10.4432
▁listening	-10.4434
非常感谢	-10.4436
万人	-10.445
▁painting	-10.4454
村	-10.4455
GDP	-10.4456
出现了	-10.4457
反对	-10.4457
历	-10.4458
ory	-10.4459
创意	-10.446
在此	-10.4464
得多	-10.4474
▁final	-10.4475
我们如何	-10.4482
印	-10.4483
季	-10.4489
▁drink	-10.4489
▁stress	-10.4489
问我	-10.4491
因为我们	-10.4491
▁immediately	-10.4492
▁Mars	-10.4496
hor	-10.4499
▁Ex	-10.4509
▁clearly	-10.4514
▁influence	-10.4522
▁glass	-10.4522
▁separate	-10.4522
▁demand	-10.4522
▁transport	-10.4523
复制	-10.4526
来看看	-10.4527
记者	-10.4531
比例	-10.4534
▁citizens	-10.4542
很简单	-10.4545
重大	-10.4548
笑声	-10.4552
荒	-10.4555
超级	-10.4557
fer	-10.4559
的经历	-10.456
bal	-10.4564
▁doctors	-10.4566
▁这意味着	-10.4567
你自己	-10.4567
让人们	-10.4569
年来	-10.457
采	-10.4576
▁greatest	-10.4577
同时也	-10.458
生物学	-10.458
属	-10.4582
▁Another	-10.4588
党	-10.4588
泰	-10.4588
▁corner	-10.4588
▁heat	-10.459
满足	-10.459
▁radio	-10.4592
▁throughout	-10.4594
斯特	-10.4599
位置	-10.4599
而已	-10.4609
从事	-10.4611
ular	-10.4613
蛋	-10.462
宽	-10.4621
▁Which	-10.4621
▁cheap	-10.4621
▁neurons	-10.4621
援助	-10.4622
早上	-10.4622
▁match	-10.4623
往往	-10.4625
▁teaching	-10.4632
今	-10.4644
▁decade	-10.4652
▁familiar	-10.4655
乳	-10.4655
堡	-10.4655
漫画	-10.4656
细节	-10.4656
▁legal	-10.4658
▁forth	-10.4666
展现	-10.4669
用户	-10.4676
az	-10.4677
成就	-10.4678
这么多	-10.4679
震	-10.4687
材	-10.4688
诉	-10.4688
径	-10.4688
耐	-10.4688
难以置信	-10.4688
昆虫	-10.4688
▁hair	-10.4689
▁performance	-10.4689
创造力	-10.4691
▁catch	-10.4695
不喜欢	-10.4707
▁glo	-10.4708
梦	-10.4713
走进	-10.4713
事业	-10.4714
▁City	-10.4714
右边	-10.4717
得以	-10.4719
雄	-10.4722
▁Imagine	-10.4722
▁protein	-10.4722
▁method	-10.4722
▁particle	-10.4722
变革	-10.4722
打印	-10.4724
▁spot	-10.4725
背后	-10.4729
大多数人	-10.4731
▁weight	-10.4739
那天	-10.4741
链	-10.4751
霍	-10.4756
▁fantastic	-10.4756
菜	-10.4756
贡献	-10.4756
▁contain	-10.4756
▁mix	-10.4756
▁greater	-10.4756
附近	-10.4756
族	-10.4761
存在于	-10.4767
好奇	-10.4771
码	-10.4781
守	-10.4789
▁himself	-10.479
摇	-10.479
肺	-10.479
徒	-10.479
▁saving	-10.4791
▁define	-10.4792
故	-10.4799
沟通	-10.4801
就开始	-10.4803
600	-10.4803
在我的	-10.4809
耳	-10.4823
▁University	-10.4824
▁driving	-10.4824
▁include	-10.4824
▁vehicle	-10.4824
准确	-10.4824
英雄	-10.4824
划	-10.4824
职业	-10.4825
▁Am	-10.4828
说到	-10.4837
很明显	-10.4839
那儿	-10.4843
历史上	-10.4843
我今天	-10.4851
▁spin	-10.4855
▁apply	-10.4857
construct	-10.4858
胶	-10.4858
▁religion	-10.4858
卷	-10.4858
赶	-10.4858
▁email	-10.4858
▁walked	-10.4861
▁Indian	-10.4864
责	-10.4868
conscious	-10.4892
▁random	-10.4892
阿拉伯	-10.4892
▁statistic	-10.4892
穿过	-10.4895
获取	-10.4897
有没有	-10.4905
另一种	-10.4916
高度	-10.4921
进一步	-10.4922
旁	-10.4925
▁introduce	-10.4926
伦敦	-10.4926
皮肤	-10.4927
matic	-10.4935
克斯	-10.494
德国	-10.4941
▁web	-10.4949
会发现	-10.495
十亿	-10.4954
得出	-10.4957
的历史	-10.4958
▁mobile	-10.4961
招	-10.4961
▁adapt	-10.4961
▁interview	-10.4961
▁communicate	-10.4961
▁于是我们	-10.4963
▁active	-10.497
room	-10.4973
一开始	-10.4977
▁accident	-10.4995
约翰	-10.4995
script	-10.4996
追求	-10.4996
都很	-10.5001
▁production	-10.5004
深入	-10.5004
▁base	-10.5006
平台	-10.5007
卫	-10.5007
开心	-10.501
▁cur	-10.5012
就是这样	-10.5015
狂	-10.503
▁custom	-10.503
酸	-10.503
▁therefore	-10.503
▁select	-10.503
资料	-10.5031
联合国	-10.5032
颗	-10.5032
生态	-10.5032
▁gain	-10.5034
微生物	-10.5034
gar	-10.5038
来做	-10.5043
▁organize	-10.505
▁humanity	-10.5057
17	-10.506
人物	-10.5061
既	-10.5064
恐龙	-10.5066
释放	-10.5072
人工	-10.5095
dollar	-10.5098
魔	-10.51
娜	-10.51
犹	-10.51
▁biological	-10.51
攻击	-10.51
▁player	-10.5101
依然	-10.5101
邮件	-10.5101
密码	-10.5101
▁neuro	-10.5106
做一个	-10.5107
团体	-10.5107
几个月	-10.5108
的内容	-10.5109
道路	-10.5119
za	-10.5119
还会	-10.5121
▁except	-10.5121
如今	-10.5122
▁quick	-10.5123
有多少	-10.5124
▁emotional	-10.5125
效率	-10.5125
很有趣	-10.5125
chan	-10.5132
stone	-10.5134
钟	-10.5134
默	-10.5135
▁cultural	-10.5135
▁terrible	-10.5135
尚	-10.5135
衰	-10.5135
▁mistake	-10.5135
蛋白质	-10.5136
态度	-10.5138
篇	-10.5138
美金	-10.514
▁我现在	-10.5142
▁legs	-10.5145
术	-10.5146
▁trip	-10.5157
兴	-10.5157
je	-10.5158
鼠	-10.5169
销	-10.5169
就这样	-10.517
▁generate	-10.5171
范围内	-10.5174
主意	-10.5183
这些数据	-10.5188
没有什么	-10.5188
性别	-10.5197
进来	-10.5204
旗	-10.5206
灰	-10.5206
普遍	-10.5206
慢慢	-10.5206
▁Tu	-10.5215
几年前	-10.5219
▁useful	-10.5223
闪	-10.5241
▁failure	-10.5241
检查	-10.5241
秘密	-10.5242
▁forget	-10.5242
路上	-10.5247
在我们的	-10.5248
伤害	-10.5252
成为一个	-10.5256
▁professional	-10.5258
▁Many	-10.5262
▁boat	-10.5264
▁mini	-10.5265
▁它会	-10.5265
▁interaction	-10.5267
从中	-10.5271
▁services	-10.5274
肯	-10.5275
侧	-10.5277
▁Second	-10.5277
▁beauty	-10.5277
▁politics	-10.5277
激励	-10.5277
迅速	-10.5277
现场	-10.5277
zo	-10.5279
一部	-10.528
▁tens	-10.5286
▁她说	-10.5293
win	-10.5302
感觉到	-10.5303
▁vote	-10.531
▁tissue	-10.5312
▁various	-10.5312
轴	-10.5312
▁Western	-10.5313
灭绝	-10.5313
▁engineering	-10.5313
购买	-10.5313
粒子	-10.5316
要做的	-10.532
▁following	-10.5324
汇	-10.5328
出现在	-10.5334
▁也就是说	-10.5338
lly	-10.5342
倾	-10.5346
摸	-10.5348
▁atmosphere	-10.5348
彻底	-10.5348
途径	-10.5349
▁river	-10.5349
▁decades	-10.5352
▁sensor	-10.5354
研	-10.5357
▁bear	-10.5357
▁describe	-10.536
最大	-10.5364
▁obvious	-10.5371
谈到	-10.5372
治	-10.5375
▁但它	-10.5376
说服	-10.5378
▁Brazil	-10.5384
▁honest	-10.5384
▁remarkable	-10.5384
毕业	-10.5385
特征	-10.5387
奇怪	-10.5391
▁fail	-10.5395
▁condition	-10.5396
▁layer	-10.5398
▁ahead	-10.5403
很小	-10.5406
说法	-10.5407
瑞	-10.5419
朗	-10.542
▁climb	-10.542
兄弟	-10.542
▁popular	-10.5421
灾难	-10.5421
▁Two	-10.5423
员工	-10.5425
施	-10.5425
多年	-10.5431
不久	-10.5438
机制	-10.544
心脏	-10.5442
社	-10.5442
▁Facebook	-10.5448
糟	-10.5456
▁although	-10.5456
▁babies	-10.5456
▁landscape	-10.5456
▁trouble	-10.5456
壁	-10.5456
▁surround	-10.5457
横	-10.5457
蜜蜂	-10.5457
craft	-10.5457
许多人	-10.5458
这场	-10.5461
将其	-10.5461
所有人都	-10.5461
这点	-10.5469
▁investment	-10.5471
▁我发现	-10.5472
更有	-10.5476
▁invented	-10.5478
美丽的	-10.5481
基因组	-10.5484
够	-10.5487
肥	-10.5493
▁London	-10.5493
▁infrastructure	-10.5493
▁straight	-10.5493
▁distance	-10.5493
▁weapon	-10.5493
广泛	-10.5493
旁边	-10.5494
▁colleagues	-10.5497
ency	-10.5498
off	-10.5498
▁edge	-10.5499
▁fat	-10.5501
2010	-10.5502
原理	-10.5505
▁seat	-10.5509
没什么	-10.5518
法国	-10.5525
刑	-10.5529
暂	-10.5529
爸爸	-10.5529
▁sister	-10.553
▁Gu	-10.5531
意思是	-10.5536
一致	-10.5537
人体	-10.5541
这是个	-10.5544
错了	-10.5546
▁express	-10.5556
带到	-10.5558
顾	-10.5562
脏	-10.5563
扔	-10.5566
嘴	-10.5566
▁destroy	-10.5566
趋势	-10.5566
翻译	-10.5566
旅程	-10.5567
感受到	-10.5568
▁collective	-10.5572
认识到	-10.5573
▁beat	-10.5574
在座的	-10.5577
大众	-10.5579
▁shared	-10.5582
我希望	-10.5585
Y	-10.5585
65	-10.5588
over	-10.5597
个国家	-10.5597
厅	-10.5602
拜	-10.5602
▁disappear	-10.5603
▁television	-10.5603
▁summer	-10.5603
▁genome	-10.5603
前面	-10.5604
你不能	-10.5604
▁apart	-10.561
的情况下	-10.5611
▁era	-10.5614
全国	-10.5615
相机	-10.5624
▁我将	-10.5625
穷	-10.563
技能	-10.5639
▁birth	-10.5639
▁understood	-10.564
成千上万	-10.564
▁speech	-10.564
珍	-10.564
▁emerge	-10.564
金融	-10.564
▁conference	-10.5641
▁sexual	-10.5641
典	-10.5647
主义者	-10.5648
▁helped	-10.5648
幸	-10.5648
▁fan	-10.5648
就像是	-10.5651
ase	-10.5652
▁flying	-10.5656
应对	-10.5669
产生了	-10.5672
始	-10.5672
▁rid	-10.5672
这不是	-10.5675
偶	-10.5676
希	-10.5676
凡	-10.5676
墨西哥	-10.5677
▁worst	-10.5677
▁我的意思是	-10.5678
▁Arab	-10.5679
▁mission	-10.5683
▁total	-10.5684
▁Ki	-10.5695
验	-10.5697
▁perform	-10.57
arian	-10.5712
授	-10.5712
稍	-10.5713
avi	-10.5713
乡	-10.5714
▁supply	-10.5714
▁spoke	-10.5714
▁expand	-10.5714
博客	-10.5715
提醒	-10.5716
▁anyway	-10.5724
这个人	-10.574
呈现	-10.5745
▁instrument	-10.5751
▁possibly	-10.5751
二氧化碳	-10.5751
甲	-10.5751
公众	-10.5753
失去了	-10.576
How	-10.5762
走到	-10.5769
加上	-10.5771
黑人	-10.5773
则是	-10.5779
分布	-10.578
鲜	-10.5783
毫	-10.5785
▁slightly	-10.5789
虚拟	-10.5789
▁coral	-10.5789
案例	-10.579
—	-10.579
▁Nor	-10.5792
▁labor	-10.5799
富有	-10.5801
组合	-10.5809
应该是	-10.5821
▁author	-10.5824
已经有	-10.5826
售	-10.5826
▁California	-10.5826
掌握	-10.5826
怀疑	-10.5827
浪费	-10.5827
place	-10.5827
▁organ	-10.5827
▁stopped	-10.5828
念	-10.5831
▁harm	-10.5834
如同	-10.5839
▁tax	-10.5844
▁recent	-10.5861
孔	-10.5864
珊	-10.5864
席	-10.5864
盲	-10.5864
▁capture	-10.5865
▁shop	-10.5871
平等	-10.5874
hand	-10.5875
term	-10.5877
▁sick	-10.5878
有一种	-10.5901
‘	-10.5902
▁dynamic	-10.5902
▁cycle	-10.5902
欢迎	-10.5902
丰富	-10.5902
机械	-10.5902
相同	-10.5906
这幅	-10.5906
刺激	-10.5908
外面	-10.5909
2008	-10.5911
高中	-10.5916
Why	-10.5923
▁sand	-10.5924
▁below	-10.5932
播	-10.5934
浪	-10.5939
抽	-10.5939
▁aware	-10.5939
▁central	-10.594
▁consequence	-10.594
▁shark	-10.594
▁double	-10.594
▁smell	-10.594
极端	-10.5944
不知	-10.5946
▁Sun	-10.5947
写了	-10.5951
▁attract	-10.5953
幅	-10.5954
进去	-10.5955
▁none	-10.5956
▁option	-10.5959
原因是	-10.596
▁特别是	-10.5962
走了	-10.5963
▁这就是我们	-10.5972
uff	-10.5974
奇怪的	-10.5976
忙	-10.5977
雅	-10.5977
填	-10.5978
▁sample	-10.5978
缺乏	-10.5978
强烈	-10.5979
衣服	-10.5979
拒绝	-10.598
启发	-10.598
播放	-10.5983
一座	-10.5999
不应该	-10.6
裂	-10.6013
闭	-10.6015
▁circle	-10.6016
▁feature	-10.6016
▁belief	-10.6016
汉	-10.6016
哲学	-10.6017
小小的	-10.6023
期间	-10.6024
有能力	-10.6029
为此	-10.6031
▁passion	-10.6032
等待	-10.6032
ong	-10.6039
bling	-10.6052
宣	-10.6052
毁	-10.6055
▁sequence	-10.6055
湾	-10.6055
▁switch	-10.6055
暖	-10.6055
▁Think	-10.6056
简直	-10.6057
强大	-10.6058
▁mostly	-10.6061
在那儿	-10.6066
▁pop	-10.6067
频	-10.6083
岁的时候	-10.6084
有两个	-10.6086
重点	-10.609
Q	-10.6092
▁capacity	-10.6093
壮	-10.6093
税	-10.6093
▁sector	-10.6093
▁From	-10.6093
▁argue	-10.6094
难民	-10.6098
▁directly	-10.6104
两者	-10.6111
▁ban	-10.6112
可以通过	-10.6119
面积	-10.6122
恒星	-10.6124
为何	-10.6126
担	-10.6128
略	-10.6131
抓	-10.6131
摆	-10.6132
发展中国家	-10.6132
▁copy	-10.6133
解决方案	-10.6134
大规模	-10.6135
选举	-10.6138
▁Your	-10.6138
关联	-10.6138
强大的	-10.6139
期待	-10.6141
▁这就是我	-10.6142
聚集	-10.6142
功	-10.6145
有机会	-10.6146
▁mess	-10.6147
▁meters	-10.6154
适合	-10.6158
征	-10.6167
相关的	-10.6168
志	-10.617
▁Afghanistan	-10.6171
▁sentence	-10.6171
▁David	-10.6171
▁crime	-10.6171
每一个人	-10.6177
热情	-10.6178
一个新的	-10.6194
创造出	-10.6196
世界上最	-10.6204
喜	-10.6206
部落	-10.621
虚	-10.621
▁Instead	-10.621
▁profound	-10.621
伊拉克	-10.621
插	-10.621
▁traffic	-10.621
改革	-10.621
▁paid	-10.621
舞台	-10.6212
输入	-10.6213
玩具	-10.6217
种类	-10.6229
些什么	-10.6235
▁你可能	-10.6245
真的很	-10.6248
繁	-10.6249
纯	-10.6249
▁neighbor	-10.6249
▁symbol	-10.6249
▁technique	-10.6249
庞	-10.6249
发挥	-10.6251
22	-10.6251
黑暗	-10.6251
看来	-10.6252
head	-10.6255
电力	-10.6256
▁gun	-10.626
▁Ph	-10.6273
要知道	-10.6282
察	-10.6287
▁campaign	-10.6289
▁easily	-10.6289
▁tremendous	-10.6289
莉	-10.6289
谋	-10.6289
▁shoot	-10.6289
辩论	-10.6289
判断	-10.629
军队	-10.629
按照	-10.6291
血管	-10.6292
毫无	-10.6293
般	-10.6303
▁dad	-10.6312
合理	-10.6314
▁station	-10.632
椅	-10.6322
抵	-10.6328
▁electro	-10.6328
▁muscle	-10.6328
▁responsibility	-10.6328
储	-10.6329
奇妙	-10.6329
▁mid	-10.6336
教学	-10.6347
疾	-10.6366
漫	-10.6366
就好像	-10.6367
殖	-10.6368
▁societies	-10.6368
▁bought	-10.6368
取决于	-10.6368
望远镜	-10.6368
传递	-10.6368
画面	-10.6369
▁outcome	-10.6369
以下	-10.6373
hop	-10.6374
▁Asia	-10.6374
感知	-10.6375
可行	-10.638
作出	-10.6383
▁loss	-10.6384
实际上是	-10.6389
司	-10.6405
扎	-10.6408
冒	-10.6408
&	-10.6408
献	-10.6408
▁National	-10.6408
▁avoid	-10.6408
ko	-10.6413
看到的是	-10.6417
▁这里有	-10.6422
相当于	-10.6423
拿到	-10.6427
很久	-10.6432
▁你看	-10.6435
▁但他们	-10.644
▁occur	-10.6447
什	-10.6447
隆	-10.6448
▁creativity	-10.6448
▁twice	-10.6448
同性恋	-10.6448
麻烦	-10.6448
海岸	-10.645
维持	-10.645
▁vast	-10.6453
便是	-10.6463
那么多	-10.6465
要么	-10.6475
据	-10.6481
还没	-10.6482
签	-10.6487
缓	-10.6488
窗	-10.6488
▁combine	-10.6488
▁oxygen	-10.6488
脆弱	-10.6488
寿命	-10.6488
▁noticed	-10.6488
便宜	-10.6489
▁dying	-10.6491
没错	-10.6495
以上	-10.6495
惊人的	-10.6498
同一	-10.6503
原来	-10.6513
▁opt	-10.6521
走向	-10.6521
赢	-10.6524
婚	-10.6527
束	-10.6527
介	-10.6528
▁afraid	-10.6528
▁surprising	-10.6528
脊	-10.6528
▁shock	-10.6528
▁article	-10.6528
▁chair	-10.6528
伊朗	-10.6529
▁bridge	-10.6529
▁sustainable	-10.653
▁funny	-10.653
▁brand	-10.653
更高	-10.653
报纸	-10.6531
21	-10.6532
▁然后你	-10.6533
▁speaking	-10.6534
注意力	-10.6535
手段	-10.6536
去看	-10.655
虽然	-10.6558
驱动	-10.6561
Ma	-10.6564
乎	-10.6566
烧	-10.6569
滚	-10.6569
拼	-10.6569
执行	-10.6572
▁Over	-10.6576
全新的	-10.6578
加州	-10.6579
出版	-10.658
▁published	-10.6586
都要	-10.6592
将它	-10.6593
回去	-10.6593
▁sad	-10.6597
才会	-10.6597
看不到	-10.6598
都被	-10.66
评	-10.6608
梅	-10.6609
▁commercial	-10.6609
熊	-10.6609
玻璃	-10.6609
▁Iraq	-10.6609
▁balance	-10.6609
▁replace	-10.661
state	-10.6612
版本	-10.6613
▁quote	-10.662
识别	-10.6625
对他们	-10.6629
一本	-10.6632
万美元	-10.6638
ily	-10.664
对象	-10.6649
那时候	-10.665
捐	-10.665
割	-10.665
NASA	-10.665
▁border	-10.665
遗传	-10.6652
期望	-10.6655
▁broken	-10.6657
▁enable	-10.666
三十	-10.6662
▁evolved	-10.6663
▁closer	-10.668
解决问题	-10.6681
▁rev	-10.6681
你就会	-10.6688
绿	-10.669
荷	-10.669
诱	-10.6691
▁determine	-10.6691
▁contact	-10.6691
▁hang	-10.6697
▁Sha	-10.67
接着	-10.6704
哪个	-10.6705
被称为	-10.6707
美丽	-10.6708
▁highly	-10.6709
▁dimension	-10.6714
看过	-10.6715
▁这就是为什么	-10.6715
永	-10.6726
▁played	-10.6728
耗	-10.6732
敬	-10.6732
以色列	-10.6732
▁promise	-10.6732
总结	-10.6734
供应	-10.6734
能否	-10.6737
▁我当时	-10.6742
▁lack	-10.6744
那就是	-10.6744
极其	-10.6747
地下	-10.6747
这个想法	-10.6749
▁driver	-10.6752
处在	-10.6755
▁Dan	-10.6757
▁gold	-10.6768
消费	-10.677
人性	-10.6771
扰	-10.6774
涂	-10.6774
自行车	-10.6774
▁graduate	-10.6774
▁Great	-10.6774
▁gather	-10.6774
士兵	-10.6774
居民	-10.6775
▁addition	-10.6775
▁motor	-10.678
一点点	-10.6784
▁inspired	-10.6786
什么时候	-10.6787
▁wire	-10.6788
Do	-10.679
hr	-10.679
▁differently	-10.6793
严重的	-10.6805
▁react	-10.6805
弃	-10.6813
▁El	-10.6815
夺	-10.6815
沙漠	-10.6815
慈善	-10.6815
conduct	-10.6816
涉及	-10.6816
▁scientist	-10.6819
另	-10.6819
超越	-10.6819
想像	-10.6819
的看法	-10.682
物品	-10.6824
所能	-10.6849
有许多	-10.6852
执	-10.6854
▁algorithm	-10.6857
拖	-10.6857
多样性	-10.6857
渴望	-10.6857
袭击	-10.6857
▁Any	-10.6857
▁drawing	-10.6863
潜水	-10.6864
大自然	-10.6872
好消息	-10.6875
液	-10.6895
iPhone	-10.6899
▁vaccine	-10.6899
泥	-10.6899
曲线	-10.6907
混合	-10.6907
▁core	-10.6911
▁plane	-10.6925
▁produced	-10.6926
▁component	-10.6941
▁continent	-10.6941
▁husband	-10.6941
▁victim	-10.6941
穆斯林	-10.6941
这本书	-10.6941
▁oh	-10.6944
做的事	-10.6949
提供了	-10.6955
▁consumer	-10.6958
非常好	-10.6959
即将	-10.6962
推动	-10.6968
当今	-10.6972
握	-10.6983
哭	-10.6983
忧	-10.6983
隐藏	-10.6984
探测	-10.6984
▁notion	-10.6988
在这儿	-10.6993
▁rare	-10.6996
字母	-10.7002
ification	-10.701
理性	-10.701
症状	-10.7019
蛛	-10.7025
骑	-10.7025
▁remove	-10.7025
漏	-10.7025
丈夫	-10.7025
▁diversity	-10.7025
▁giant	-10.7025
▁rough	-10.7026
▁earth	-10.7026
▁hack	-10.7026
27	-10.7027
生态系统	-10.7029
准备好	-10.703
使我	-10.7039
▁blog	-10.7042
可怕的	-10.7046
私人	-10.7057
熟	-10.7065
黄	-10.7066
览	-10.7067
幕	-10.7068
敢	-10.7068
奴	-10.7068
▁identity	-10.7068
凯	-10.7068
自闭症	-10.7068
▁basis	-10.7068
某种程度上	-10.7068
▁Again	-10.7068
▁correct	-10.7068
▁classroom	-10.7069
农民	-10.7069
评论	-10.7069
标志	-10.7069
▁blow	-10.7071
听说过	-10.7071
尤其	-10.7073
▁1,000	-10.7074
▁gap	-10.7074
了解到	-10.7075
告诉他们	-10.7078
▁pal	-10.7082
▁gotten	-10.7089
▁nearly	-10.7092
给他	-10.7093
设想	-10.7096
搭	-10.711
乔	-10.711
▁dramatic	-10.7111
芬	-10.7111
▁satellite	-10.7111
▁crowd	-10.7111
▁missing	-10.7112
美妙	-10.7113
▁European	-10.7119
名叫	-10.7121
必须要	-10.7124
▁passed	-10.7125
行走	-10.7127
▁hearing	-10.7133
▁helping	-10.7138
乐观	-10.7141
▁seemed	-10.715
逐	-10.7153
▁struggle	-10.7153
▁surgery	-10.7153
羞	-10.7153
▁operation	-10.7154
候	-10.7155
▁tough	-10.7157
▁flight	-10.716
有机	-10.7164
▁reaction	-10.7168
做一些	-10.7171
同一个	-10.7172
统	-10.7188
剩	-10.7196
孤	-10.7196
阶	-10.7196
脂	-10.7197
迁	-10.7197
▁bottle	-10.7197
瞬间	-10.7197
▁host	-10.7197
临床	-10.7197
调整	-10.72
后果	-10.72
送到	-10.72
▁Take	-10.7208
▁etc	-10.721
忘记	-10.7215
▁因此我们	-10.7218
▁extreme	-10.7226
▁fair	-10.723
▁application	-10.724
▁background	-10.724
▁opposite	-10.724
spiration	-10.7241
▁civilization	-10.7241
毒品	-10.7242
▁master	-10.7247
可以让	-10.7258
gro	-10.7272
勃	-10.7283
哇	-10.7283
▁definition	-10.7283
薄	-10.7283
▁aspect	-10.7283
估计	-10.7284
会发生	-10.7285
角落	-10.7286
▁complexity	-10.729
char	-10.7293
不论	-10.7294
▁Lu	-10.7304
技巧	-10.7312
▁spending	-10.732
农	-10.7323
竞	-10.7327
▁forever	-10.7327
AIDS	-10.7327
▁imagination	-10.7327
幼	-10.7327
▁Islam	-10.7327
MIT	-10.7327
▁chain	-10.7327
黑猩猩	-10.7327
▁eating	-10.7328
指出	-10.7329
▁invent	-10.7335
发布	-10.7349
五年	-10.7349
▁hate	-10.7354
死去	-10.7365
淡	-10.7371
猪	-10.7371
▁coffee	-10.7371
钻	-10.7371
共享	-10.7371
▁recover	-10.7372
启动	-10.7373
纳米	-10.7377
带来了	-10.7382
已经被	-10.7392
第三个	-10.7399
一千	-10.7402
▁Bill	-10.7406
没法	-10.7408
我必须	-10.7414
梯	-10.7415
▁Australia	-10.7415
▁alternative	-10.7415
刀	-10.7415
挂	-10.7415
▁scene	-10.7415
策略	-10.7415
覆盖	-10.7415
演示	-10.7418
基金会	-10.7423
之类的	-10.7424
放大	-10.7431
▁studying	-10.7436
公里	-10.7439
ulation	-10.7449
bar	-10.7456
洋	-10.7457
财	-10.7458
厂	-10.7458
伸	-10.7459
矛盾	-10.7459
鼻	-10.7459
▁root	-10.746
固定	-10.7461
哪儿	-10.7463
一遍	-10.7471
交谈	-10.7473
一幅	-10.7482
任何一个	-10.7483
一辆	-10.749
26	-10.7491
▁raised	-10.7495
▁suit	-10.7497
斗	-10.7502
焦	-10.7504
磅	-10.7504
▁airplane	-10.7504
▁negative	-10.7504
蚁	-10.7504
揭	-10.7504
▁divide	-10.7504
边缘	-10.7505
2007	-10.7506
透明	-10.7506
▁reward	-10.7507
▁grand	-10.7507
▁weird	-10.7507
公平	-10.751
▁PM	-10.7526
指数	-10.7537
生意	-10.7541
洲	-10.7543
尊	-10.7546
▁easier	-10.7548
▁museum	-10.7548
阵	-10.7548
GPS	-10.7548
伙伴	-10.7549
客户	-10.7549
震惊	-10.7549
教堂	-10.755
提升	-10.7551
ov	-10.7552
▁flower	-10.7558
▁Har	-10.756
开车	-10.7561
在印度	-10.7565
▁CO	-10.7567
流动	-10.7568
▁focused	-10.7573
前进	-10.7579
▁encourage	-10.7593
喻	-10.7593
渔	-10.7593
▁Israel	-10.7593
▁Russia	-10.7593
▁desire	-10.7593
▁radical	-10.7593
依靠	-10.7594
照顾	-10.7594
绕	-10.7595
gy	-10.7597
▁我是说	-10.7598
劳动	-10.76
激动	-10.76
对吗	-10.7609
有趣的是	-10.7627
Wh	-10.7627
▁commit	-10.7631
戏	-10.7637
辆	-10.7637
厚	-10.7638
▁opportunities	-10.7638
▁strength	-10.7638
牧	-10.7638
猴子	-10.764
ulate	-10.7646
因为它	-10.7647
回应	-10.7648
图表	-10.7652
融	-10.7668
合成	-10.7669
合法	-10.7672
不确定	-10.7672
完成了	-10.7675
▁dinosaur	-10.7683
▁president	-10.7683
吓	-10.7683
转移	-10.7686
▁bound	-10.7688
▁party	-10.7691
▁cave	-10.7695
标记	-10.7697
深刻	-10.7698
based	-10.7704
穿着	-10.771
▁justice	-10.7716
地位	-10.7723
▁collaborat	-10.7724
承	-10.7726
谢	-10.7727
▁Muslim	-10.7729
辛	-10.7729
▁trend	-10.7729
▁lucky	-10.7729
伟大	-10.7729
斗争	-10.7729
改进	-10.7733
让你们	-10.7734
整体	-10.7741
是一名	-10.7742
▁10,000	-10.7744
▁Her	-10.775
▁See	-10.7754
▁这是一种	-10.7765
ography	-10.7767
仪	-10.7771
挑	-10.7773
附	-10.7773
雇	-10.7774
▁yellow	-10.7775
YouTube	-10.7775
▁ecosystem	-10.7775
▁possibility	-10.7775
▁remote	-10.7775
投票	-10.7776
种植	-10.7776
特性	-10.7778
专利	-10.778
谈话	-10.778
代码	-10.7781
一段时间	-10.7782
▁当他们	-10.7786
一套	-10.7786
▁cry	-10.7786
▁fold	-10.779
尽管	-10.7806
人士	-10.7808
氧	-10.7819
▁mouth	-10.782
赋予	-10.782
▁consciousness	-10.782
基础设施	-10.7821
印象	-10.7822
充满了	-10.7823
▁stem	-10.7831
是多么	-10.7839
利亚	-10.7844
做成	-10.7858
屋	-10.7859
有点像	-10.786
▁architect	-10.7866
▁criminal	-10.7866
▁despite	-10.7866
▁technical	-10.7866
决策	-10.7867
象征	-10.7867
紧张	-10.7869
盒子	-10.787
▁However	-10.7872
教师	-10.7873
▁proud	-10.7873
在未来	-10.7874
街道	-10.7876
800	-10.7885
环境中	-10.7892
几天	-10.7895
遍	-10.7898
rail	-10.7905
刺	-10.7905
堂	-10.7906
危	-10.7911
构成	-10.7912
▁Actually	-10.7913
▁advantage	-10.7913
▁platform	-10.7913
地面	-10.7913
婚姻	-10.7913
幻灯片	-10.7913
领袖	-10.7913
形态	-10.7915
强调	-10.7918
▁ultimately	-10.7921
▁tradition	-10.7922
样本	-10.7922
▁moon	-10.7926
▁fairly	-10.7927
▁date	-10.7928
dimensional	-10.7933
达成	-10.7937
▁pat	-10.7938
▁held	-10.795
律	-10.7955
摄影	-10.7959
恋	-10.7959
▁competition	-10.7959
▁stuck	-10.7959
筹	-10.7959
▁desert	-10.7959
▁sharing	-10.7959
艰难	-10.796
商品	-10.7963
文件	-10.7965
五十	-10.7973
▁importantly	-10.7975
▁bag	-10.7983
对我说	-10.7991
This	-10.7992
把自己	-10.7994
▁turning	-10.7998
还有一个	-10.8
▁Per	-10.8002
▁ancient	-10.8006
▁magazine	-10.8006
▁mechanism	-10.8006
肩	-10.8006
膜	-10.8006
致力于	-10.8006
▁whale	-10.8006
活跃	-10.8007
衡量	-10.8007
▁entirely	-10.801
当作	-10.8017
真相	-10.8017
▁noise	-10.8022
每天都	-10.8027
▁surprise	-10.8027
良好	-10.8029
在非洲	-10.8043
maker	-10.8044
悬	-10.8053
措施	-10.8053
规划	-10.8054
费用	-10.8057
成立	-10.8069
意见	-10.8071
本来	-10.8071
败	-10.8099
恰	-10.81
艺	-10.81
▁identify	-10.81
卵	-10.81
呀	-10.81
扬	-10.81
肌肉	-10.81
▁translate	-10.8101
▁repeat	-10.8101
玩耍	-10.8101
尊重	-10.8102
南非	-10.8106
演员	-10.8106
重建	-10.8109
大陆	-10.8116
stan	-10.8116
▁bin	-10.812
▁finish	-10.8122
纪	-10.8146
精确	-10.8147
▁necessarily	-10.8148
愤怒	-10.8148
▁Sometimes	-10.8148
▁claim	-10.8148
传染	-10.8148
明确	-10.8149
移民	-10.8149
埃及	-10.815
▁flag	-10.8151
制定	-10.8151
工人	-10.8152
化石	-10.8157
录像	-10.8158
效应	-10.8159
▁Wal	-10.8165
我父亲	-10.8168
▁suffering	-10.8175
whe	-10.8177
走出	-10.818
▁whi	-10.818
对方	-10.8193
Hey	-10.8194
欲	-10.8195
练	-10.8195
▁attempt	-10.8195
▁fashion	-10.8195
▁phenomenon	-10.8195
▁regular	-10.8195
奖励	-10.8195
邻居	-10.8195
进展	-10.8198
▁ski	-10.8202
动机	-10.8204
流感	-10.8209
视角	-10.821
▁pet	-10.821
域	-10.822
习	-10.8233
就算	-10.8237
lut	-10.8242
▁religious	-10.8243
▁damage	-10.8243
▁breast	-10.8243
▁estimate	-10.8243
In	-10.8243
围绕	-10.8243
诞生	-10.8244
寻求	-10.8244
▁direct	-10.8245
▁chose	-10.8246
▁pair	-10.8249
集体	-10.825
拿着	-10.8252
▁coast	-10.8253
算法	-10.8256
改造	-10.8263
能做到	-10.8267
▁nor	-10.8286
发明了	-10.8288
购	-10.829
▁roof	-10.8291
▁leadership	-10.8292
▁Middle	-10.8292
轨道	-10.8292
地理	-10.8293
▁motion	-10.8294
一个例子	-10.8295
▁bright	-10.8296
消费者	-10.8297
给你们看	-10.8297
▁这些都是	-10.8297
认真	-10.8304
来讲	-10.8311
人数	-10.8314
常见	-10.8316
▁spec	-10.8325
对自己	-10.833
▁due	-10.8334
替	-10.8337
滴	-10.8339
▁metaphor	-10.8339
▁necessary	-10.8339
华盛顿	-10.8339
柱	-10.8339
泄	-10.8339
纹	-10.8339
手指	-10.8351
存活	-10.8351
穷人	-10.8351
life	-10.8355
付出	-10.8356
▁Once	-10.8356
▁figured	-10.8358
▁suffer	-10.836
名为	-10.8361
▁Bi	-10.8363
观看	-10.8377
看一下	-10.8378
▁govern	-10.838
高兴	-10.8381
非常非常	-10.8385
安德森	-10.8388
▁election	-10.8388
▁university	-10.8388
孙	-10.8388
田	-10.8388
逆	-10.8388
▁crash	-10.8388
▁bubble	-10.8388
舞蹈	-10.8388
睡眠	-10.8388
着手	-10.8389
血液	-10.8389
金属	-10.8389
预防	-10.839
以至于	-10.8392
打电话	-10.8394
阳光	-10.8406
显	-10.841
几百	-10.8411
技	-10.8428
估	-10.8436
兵	-10.8436
尺	-10.8436
杆	-10.8437
返	-10.8437
▁gender	-10.8437
▁pounds	-10.8437
▁joy	-10.8437
▁score	-10.8438
▁mouse	-10.844
▁band	-10.8442
驱	-10.8446
灵感	-10.8452
所看到的	-10.8453
意外	-10.8461
▁sorry	-10.8464
可见	-10.8468
加速	-10.847
谎	-10.8486
▁employ	-10.8486
▁monkey	-10.8486
洛杉矶	-10.8486
瑟	-10.8486
饰	-10.8486
▁location	-10.8486
违	-10.8486
严肃	-10.8486
▁click	-10.8486
▁disorder	-10.8486
▁foreign	-10.8486
▁creation	-10.8486
▁Japan	-10.8487
环保	-10.8487
片段	-10.849
怎么办	-10.8492
单词	-10.8492
app	-10.8492
能找到	-10.8496
很高兴	-10.8508
verse	-10.8514
▁failed	-10.8521
至今	-10.8524
一篇	-10.853
▁faith	-10.8535
喂	-10.8535
爱因斯坦	-10.8535
抑郁	-10.8535
村庄	-10.8535
作家	-10.8537
朋友们	-10.8549
▁expression	-10.8551
这么说	-10.8554
▁你会发现	-10.8556
宇宙中	-10.856
秘	-10.8583
键	-10.8583
▁universal	-10.8584
▁broad	-10.8584
▁cartoon	-10.8584
▁responsible	-10.8584
▁studied	-10.8584
▁succeed	-10.8584
举个例子	-10.8584
▁gift	-10.8585
培训	-10.8585
肯尼亚	-10.8585
销售	-10.8585
承诺	-10.8585
旋转	-10.8585
直觉	-10.8587
飞行器	-10.859
转换	-10.859
yard	-10.8602
▁diver	-10.8604
我们想要	-10.8606
你可以看到	-10.8608
还有很多	-10.8617
▁holding	-10.862
所知	-10.8621
怕	-10.8624
答	-10.863
续	-10.8633
织	-10.8633
▁French	-10.8634
▁George	-10.8634
壳	-10.8634
逊	-10.8634
▁bread	-10.8634
▁electronic	-10.8634
就不会	-10.8635
▁farmers	-10.8641
干细胞	-10.8645
领导者	-10.8648
▁curve	-10.8652
▁leading	-10.8665
让他	-10.8668
死于	-10.8669
▁Washington	-10.8684
▁previous	-10.8684
▁strategy	-10.8684
耶	-10.8684
▁debate	-10.8685
符合	-10.8685
差别	-10.8688
赢得	-10.869
▁Paul	-10.8692
我不知道	-10.8693
最佳	-10.8696
▁BG	-10.8707
▁lay	-10.8726
沿	-10.8727
▁foundation	-10.8729
抑	-10.8734
吹	-10.8734
▁childhood	-10.8734
▁marriage	-10.8734
▁restaurant	-10.8734
恨	-10.8734
加拿大	-10.8735
▁extend	-10.8735
▁Good	-10.8735
▁Have	-10.8735
▁horse	-10.8735
混乱	-10.8735
仪器	-10.8737
放进	-10.8737
律师	-10.8738
讯	-10.8743
▁operate	-10.8744
▁pig	-10.8751
▁tap	-10.8755
保存	-10.876
为什么要	-10.8766
▁Mr	-10.8771
小组	-10.8778
岩	-10.8784
累	-10.8785
胸	-10.8785
▁interface	-10.8785
▁puzzle	-10.8785
▁tumor	-10.8785
CEO	-10.8785
▁hurt	-10.8785
▁impress	-10.8785
▁smile	-10.8785
采访	-10.8785
损失	-10.8787
遭	-10.8788
大卫	-10.88
jo	-10.8805
▁discovery	-10.8807
▁compared	-10.8808
影片	-10.8809
▁north	-10.881
metric	-10.882
▁deeply	-10.8835
▁brilliant	-10.8836
▁monitor	-10.8836
▁newspaper	-10.8836
伐	-10.8836
辈	-10.8836
▁Nigeria	-10.8836
▁install	-10.8836
忽略	-10.8836
祖先	-10.8837
优势	-10.8837
▁patent	-10.8839
额外	-10.884
展开	-10.8842
白色	-10.8844
▁Mc	-10.8845
发射	-10.8848
▁sudden	-10.8873
ung	-10.8877
▁bill	-10.8884
▁leaving	-10.8887
▁professor	-10.8887
戈	-10.8887
粗	-10.8887
▁empower	-10.8887
▁battle	-10.8887
▁prior	-10.8887
▁Anderson	-10.8887
最后一个	-10.8888
▁drag	-10.8888
抓住	-10.8888
打破	-10.8892
尼亚	-10.8895
▁poem	-10.8896
好事	-10.8897
根本不	-10.8897
做些什么	-10.8924
无限	-10.8936
盗	-10.8938
▁Kenya	-10.8938
灌	-10.8938
貌	-10.8938
▁fresh	-10.8938
▁reveal	-10.8938
模仿	-10.8938
展览	-10.8939
五个	-10.8939
宣传	-10.8939
营养	-10.8941
充分	-10.8946
▁在过去的	-10.895
▁belong	-10.8951
随机	-10.8951
不平等	-10.8968
gging	-10.8972
▁managed	-10.8983
之内	-10.8984
▁British	-10.899
▁fascinating	-10.899
锁	-10.899
▁honor	-10.899
嘛	-10.899
图书馆	-10.899
▁adopt	-10.899
结婚	-10.8991
愿望	-10.8991
▁rot	-10.8992
▁Park	-10.8992
▁unfortunately	-10.8993
建筑师	-10.8995
▁majority	-10.8996
金钱	-10.8998
▁fighting	-10.8998
▁transformation	-10.8999
情形	-10.8999
平方	-10.9001
岁时	-10.9002
blo	-10.9006
正如	-10.9007
道理	-10.9012
应当	-10.9024
我的工作	-10.9038
狱	-10.9041
桶	-10.9041
▁caught	-10.9041
陷入	-10.9043
现状	-10.9043
远远	-10.9048
潜力	-10.9049
椅子	-10.9049
▁theater	-10.905
非常简单	-10.9053
热爱	-10.9057
▁watched	-10.9066
▁Did	-10.9072
▁businesses	-10.9083
不必	-10.9085
▁limited	-10.9085
会发生什么	-10.9087
灾	-10.9092
佛	-10.9093
冠	-10.9093
胎	-10.9093
▁budget	-10.9093
▁collapse	-10.9093
湖	-10.9093
踏	-10.9093
摆脱	-10.9094
▁Life	-10.9095
图案	-10.9098
▁unlike	-10.9098
▁grab	-10.9099
场景	-10.9102
提取	-10.9103
学生们	-10.9115
鼓	-10.9115
谢谢你	-10.9118
▁finished	-10.9122
这些事情	-10.9124
引发	-10.9131
研发	-10.9134
▁Tra	-10.9135
32	-10.9144
剪	-10.9146
宫	-10.9146
弯	-10.9146
截	-10.9146
租	-10.9146
赫	-10.9146
▁Egypt	-10.9146
▁lunch	-10.9146
煤	-10.9146
海豚	-10.9146
蚊子	-10.9147
奇迹	-10.9147
倾听	-10.9149
专门	-10.915
开展	-10.9153
互	-10.9153
第四	-10.9176
zi	-10.9179
▁我记得	-10.919
可爱	-10.9193
▁lu	-10.9196
亡	-10.9197
妇	-10.9197
休	-10.9198
姐	-10.9198
钢	-10.9198
▁Richard	-10.9198
▁exercise	-10.9198
▁fossil	-10.9198
▁dozen	-10.9199
很可能	-10.9199
▁display	-10.9199
争论	-10.92
▁wearing	-10.9201
企业家	-10.9207
检	-10.9209
尽可能	-10.9214
阿尔	-10.9217
保留	-10.9218
If	-10.9225
▁Big	-10.9233
疯	-10.9251
▁hidden	-10.9251
▁invisible	-10.9251
▁volunteer	-10.9251
惨	-10.9251
受害者	-10.9251
氢	-10.9251
牢	-10.9251
鬼	-10.9251
▁hunt	-10.9252
▁iron	-10.9253
修复	-10.9254
所需的	-10.9257
▁discussion	-10.9263
能不能	-10.9268
际	-10.9273
▁concerned	-10.9275
全球化	-10.9285
齐	-10.9305
▁dinner	-10.9305
▁otherwise	-10.9305
▁Green	-10.9305
扮演	-10.9305
▁court	-10.9305
▁lung	-10.9306
神秘	-10.9306
▁gay	-10.9311
产业	-10.9311
告诉大家	-10.9313
大脑中	-10.9313
well	-10.9314
对称	-10.9315
也许会	-10.9323
▁tag	-10.9325
杀死	-10.9326
懂得	-10.9331
这种情况	-10.9347
患有	-10.9349
疗	-10.9355
抱	-10.9358
▁opinion	-10.9358
▁multiple	-10.9358
滩	-10.9358
企鹅	-10.9358
▁Very	-10.9358
冒险	-10.9358
练习	-10.9358
反馈	-10.9358
秒钟	-10.9359
促进	-10.9359
标签	-10.9359
▁capable	-10.9364
▁continu	-10.9364
短信	-10.9365
▁flat	-10.9366
▁everyday	-10.9367
▁constantly	-10.9367
▁followed	-10.937
▁earn	-10.9372
心脏病	-10.9384
价值观	-10.9385
以外	-10.9386
29	-10.9392
▁grown	-10.9407
小型	-10.9408
依	-10.9409
少数	-10.941
泽	-10.9412
▁mirror	-10.9412
▁politician	-10.9412
册	-10.9412
引擎	-10.9412
渡	-10.9412
澳大利亚	-10.9412
订	-10.9412
▁kilometers	-10.9412
尼日利亚	-10.9412
▁disaster	-10.9412
▁insects	-10.9412
在乎	-10.9413
精彩	-10.9413
稍微	-10.9414
黑客	-10.9414
▁grass	-10.9414
难题	-10.9415
▁chip	-10.9421
密度	-10.9422
为止	-10.9424
▁metal	-10.9425
成分	-10.9426
700	-10.9434
塑造	-10.9443
▁slowly	-10.9444
▁topic	-10.9454
一些东西	-10.9454
粒	-10.946
汽	-10.9463
赚	-10.9464
厌	-10.9466
茨	-10.9466
粘	-10.9466
▁channel	-10.9466
▁epidemic	-10.9466
廉	-10.9466
突破	-10.9467
中央	-10.9467
▁tail	-10.9467
氧气	-10.9468
夏天	-10.9469
pper	-10.9469
同情	-10.9474
恒	-10.9477
▁ideal	-10.9482
一定要	-10.9486
▁highest	-10.949
▁launch	-10.9494
拿出	-10.9499
▁US	-10.9502
▁normally	-10.9503
▁described	-10.9505
▁logic	-10.9509
我不想	-10.951
伙	-10.9511
免	-10.9518
▁trained	-10.9518
邮	-10.9519
日子	-10.952
豆	-10.952
▁married	-10.952
▁truck	-10.952
莎	-10.952
▁novel	-10.952
黄色	-10.9522
▁clinical	-10.9524
预算	-10.9524
靠近	-10.9524
▁safety	-10.9525
天空	-10.9536
不止	-10.9537
头脑	-10.9542
大楼	-10.9542
▁currently	-10.9544
▁launched	-10.9546
▁mode	-10.9548
遭受	-10.9549
启	-10.9552
听过	-10.9556
活着	-10.9561
不断地	-10.9562
▁clinic	-10.9571
带给	-10.9572
▁spirit	-10.9574
妈	-10.9574
▁artificial	-10.9575
冻	-10.9575
牲	-10.9575
▁exchange	-10.9575
擅长	-10.9575
致命	-10.9576
惊奇	-10.9578
▁parent	-10.959
▁Che	-10.9591
▁collection	-10.9595
由此	-10.9596
▁mentioned	-10.9596
▁received	-10.96
▁ill	-10.9607
▁perfectly	-10.9611
▁counter	-10.9611
dding	-10.9614
▁folks	-10.963
▁mathematics	-10.963
意大利	-10.963
涌	-10.963
▁odd	-10.963
腐败	-10.963
符号	-10.9631
▁assume	-10.9631
争议	-10.9631
▁crack	-10.9632
立刻	-10.9634
AR	-10.9636
北部	-10.9637
▁dry	-10.9638
ographic	-10.9639
分离	-10.964
一本书	-10.9652
▁fell	-10.9654
麦克	-10.9658
war	-10.9663
激发	-10.9666
5000	-10.9667
power	-10.9667
water	-10.9678
▁leader	-10.9681
赖	-10.9685
吨	-10.9685
夸	-10.9685
▁garden	-10.9685
▁dress	-10.9685
▁attach	-10.9686
反映	-10.9686
代价	-10.9687
实施	-10.9688
扩大	-10.969
中东	-10.969
有多少人	-10.969
不是吗	-10.9692
层次	-10.9701
▁invited	-10.9701
sci	-10.9714
▁receive	-10.9715
▁surprised	-10.9715
▁hat	-10.973
flu	-10.9732
28	-10.9734
cut	-10.9736
饮	-10.974
欢	-10.974
浓	-10.9741
▁survival	-10.9741
稀	-10.9741
禁止	-10.9741
▁comment	-10.9743
死亡率	-10.9746
手臂	-10.9747
▁insight	-10.9748
▁factory	-10.9768
生成	-10.9771
▁ride	-10.9782
发电	-10.9786
Fi	-10.9788
Yes	-10.9793
磨	-10.9796
▁brief	-10.9796
▁elephant	-10.9796
▁precise	-10.9796
桑	-10.9796
▁extinct	-10.9796
雕塑	-10.9797
火箭	-10.9797
▁zone	-10.9797
▁hall	-10.9799
穿越	-10.9801
回报	-10.9805
▁May	-10.9834
发光	-10.9845
是一样的	-10.9846
一颗	-10.985
援	-10.9852
仿	-10.9852
叠	-10.9852
孕	-10.9852
妹	-10.9852
appropriate	-10.9853
▁Everybody	-10.9853
▁magnet	-10.9853
拆	-10.9853
醉	-10.9853
雌	-10.9853
账	-10.9853
▁stock	-10.9853
▁shoes	-10.9853
追踪	-10.9853
▁round	-10.9853
小心	-10.9855
资本	-10.9855
▁wake	-10.9857
度过	-10.9858
吃惊	-10.9859
教室	-10.9861
高效	-10.9864
祖	-10.9866
▁chart	-10.987
一首	-10.9878
▁compare	-10.9884
屋顶	-10.9884
你会看到	-10.9908
point	-10.9908
荣	-10.9909
凝	-10.9909
▁cognitive	-10.9909
▁depression	-10.9909
▁observe	-10.9909
喊	-10.9909
嘿	-10.9909
希腊	-10.9909
腺	-10.9909
与此同时	-10.9909
规律	-10.991
古老的	-10.991
饮食	-10.991
▁refer	-10.9911
支付	-10.9911
▁contract	-10.9912
移植	-10.9934
以此	-10.9936
▁journalist	-10.9955
甚	-10.9961
▁contribute	-10.9966
▁refugee	-10.9966
▁trillion	-10.9966
兽	-10.9966
琳	-10.9966
胆	-10.9966
虎	-10.9966
▁versus	-10.9966
▁wheel	-10.9966
承担	-10.9966
纤维	-10.9966
▁operating	-10.9967
敏感	-10.9967
亚洲	-10.9967
▁Qu	-10.9968
商店	-10.9968
信念	-10.9968
▁invention	-10.998
携带	-10.9991
▁seriously	-10.9994
▁organic	-10.9997
意味着什么	-10.9997
漂	-11.0023
▁Mexico	-11.0023
▁mathematical	-11.0023
▁narrative	-11.0023
▁existence	-11.0023
▁除非	-11.0023
典型的	-11.0023
▁clip	-11.0024
▁fellow	-11.0024
▁Han	-11.0026
综合	-11.0026
同情心	-11.0027
经济学家	-11.0029
形象	-11.0029
着迷	-11.0049
影响力	-11.0051
构建	-11.0063
无数	-11.0076
sumption	-11.0078
弟	-11.0081
▁feedback	-11.0081
▁galaxies	-11.0081
▁nervous	-11.0081
▁stupid	-11.0081
▁worried	-11.0081
▁command	-11.0081
▁quiet	-11.0081
昨天	-11.0082
紧密	-11.0084
▁associated	-11.0087
还记得	-11.0098
表情	-11.0117
▁Does	-11.0119
国会	-11.0124
▁discuss	-11.0125
发生的事情	-11.0128
▁electric	-11.0134
奏	-11.0136
烈	-11.0137
盟	-11.0138
弦	-11.0138
凭	-11.0138
晶	-11.0138
沮丧	-11.0138
翼	-11.0138
▁circuit	-11.0138
▁quantum	-11.0138
俄	-11.0138
▁healthcare	-11.0138
我最喜欢的	-11.0139
显著	-11.0139
书籍	-11.0139
纪录	-11.0139
▁curious	-11.0139
▁comfortable	-11.014
回顾	-11.0141
生物学家	-11.0142
回收	-11.0148
影像	-11.0151
▁unless	-11.0158
联合	-11.0158
▁researchers	-11.0162
▁resource	-11.0167
▁concern	-11.0171
berg	-11.0179
▁south	-11.0195
摄	-11.0195
▁distribution	-11.0197
▁intelligent	-11.0197
▁nurse	-11.0197
▁practical	-11.0197
▁vessel	-11.0197
扭	-11.0197
挤	-11.0197
薪	-11.0197
辱	-11.0197
▁weather	-11.0197
▁ignore	-11.0197
▁bias	-11.0198
运输	-11.0198
顺便	-11.0199
重视	-11.02
▁planning	-11.02
激情	-11.0201
屋子	-11.0204
▁arch	-11.0206
▁taste	-11.0207
▁tear	-11.023
释	-11.0241
光线	-11.0241
西班牙	-11.0255
饼	-11.0255
▁England	-11.0255
▁equipment	-11.0255
▁survey	-11.0255
▁wisdom	-11.0255
俄罗斯	-11.0255
绳	-11.0255
溯	-11.0255
娱乐	-11.0255
免疫	-11.0255
更重要的是	-11.0255
忽视	-11.0256
跟踪	-11.0256
越来越多的	-11.0258
论文	-11.026
更快	-11.0261
北极	-11.0262
三维	-11.0265
▁cow	-11.0273
你知道吗	-11.0278
起源	-11.028
epi	-11.0286
▁publish	-11.0288
▁involve	-11.0288
生理	-11.0295
▁exact	-11.0306
诊	-11.0307
阻	-11.0313
刊	-11.0314
▁Audience	-11.0314
▁symptom	-11.0314
炼	-11.0314
召	-11.0314
坡	-11.0314
洞穴	-11.0314
▁hide	-11.0315
成绩	-11.0315
▁Island	-11.0323
250	-11.0323
感情	-11.0327
tract	-11.0334
▁tea	-11.0335
itude	-11.0364
掌	-11.0371
鲸	-11.0372
惑	-11.0373
盛	-11.0373
▁combination	-11.0373
▁equivalent	-11.0373
茶	-11.0373
▁hopefully	-11.0373
▁Three	-11.0373
▁emissions	-11.0373
土壤	-11.0373
贸易	-11.0373
昂贵	-11.0373
▁daily	-11.0374
▁2,000	-11.038
沿着	-11.0381
▁lifetime	-11.0385
▁100,000	-11.0386
这并不是	-11.0391
2004	-11.0412
点击	-11.0425
文学	-11.0426
▁economist	-11.0433
▁stood	-11.0433
汤	-11.0433
港	-11.0433
藻	-11.0433
▁official	-11.0433
悦	-11.0433
肠	-11.0433
▁talent	-11.0433
▁error	-11.0433
肥胖	-11.0433
繁殖	-11.0433
编辑	-11.0433
这张图	-11.0435
▁consumption	-11.0435
品牌	-11.0435
构造	-11.0435
▁lift	-11.0435
biotic	-11.0438
MA	-11.0438
▁terrorist	-11.044
融合	-11.0449
气球	-11.0449
scale	-11.0461
▁resid	-11.0468
可怕	-11.0474
岸	-11.049
driven	-11.049
洁	-11.0491
署	-11.0492
闲	-11.0492
ibility	-11.0492
▁laptop	-11.0492
▁telescope	-11.0492
京	-11.0492
▁rural	-11.0492
毕竟	-11.0492
▁autism	-11.0493
评估	-11.0493
▁nano	-11.0493
▁kick	-11.0493
民族	-11.0494
的重要性	-11.0494
黑洞	-11.0494
▁reform	-11.0495
取代	-11.05
另一方面	-11.0501
▁Germany	-11.0502
2011	-11.0506
更好地	-11.0523
大象	-11.0536
定位	-11.0539
符	-11.055
武	-11.0551
燃	-11.0552
佩	-11.0553
兆	-11.0553
艘	-11.0553
蓄	-11.0553
▁President	-11.0553
▁agriculture	-11.0553
▁grandmother	-11.0553
▁intellectual	-11.0553
▁judge	-11.0553
抢	-11.0553
滥	-11.0553
甜	-11.0553
躺	-11.0553
鸦	-11.0553
栋	-11.0553
▁Korea	-11.0553
步骤	-11.0553
贷款	-11.0553
▁shut	-11.0554
推广	-11.0555
农场	-11.0555
▁pill	-11.0557
▁origin	-11.0558
▁season	-11.0558
鲨鱼	-11.0559
指导	-11.0561
运动员	-11.0565
120	-11.0574
体现	-11.0583
bble	-11.0586
▁cure	-11.0595
是对的	-11.0597
马克	-11.0605
接收	-11.0611
埋	-11.0613
烤	-11.0613
▁Darwin	-11.0613
▁according	-11.0613
▁illustrat	-11.0613
▁importance	-11.0613
▁participate	-11.0613
宾	-11.0613
春	-11.0613
▁Times	-11.0613
▁Everything	-11.0613
▁joke	-11.0613
延伸	-11.0614
注射	-11.0617
诊所	-11.0619
安装	-11.0623
民众	-11.0624
分配	-11.0624
▁increasingly	-11.0626
吸收	-11.0628
动画	-11.0649
▁writer	-11.0655
操	-11.0672
▁relation	-11.0674
迎	-11.0674
辅	-11.0674
▁Einstein	-11.0674
▁analysis	-11.0674
▁galaxy	-11.0674
三分之一	-11.0674
陈	-11.0674
颠	-11.0674
▁actor	-11.0674
▁plate	-11.0674
▁construction	-11.0675
▁limb	-11.0675
▁solid	-11.0675
众多	-11.0677
广场	-11.0678
礼物	-11.0679
异常	-11.0679
引导	-11.0679
这项技术	-11.0682
安排	-11.0682
♪	-11.0685
推特	-11.0694
▁robotic	-11.0707
池	-11.0734
丧	-11.0736
竭	-11.0736
▁chicken	-11.0736
愚蠢	-11.0736
畏	-11.0736
▁pocket	-11.0736
▁property	-11.0736
达尔文	-11.0736
差距	-11.0736
申请	-11.0736
仪式	-11.0737
▁ethic	-11.0738
药品	-11.0741
▁Other	-11.0742
▁tall	-11.0746
2006	-11.0748
▁setting	-11.0748
That	-11.0749
luck	-11.0749
这份	-11.0773
受伤	-11.0774
▁skill	-11.0784
基金	-11.0791
一整	-11.0792
币	-11.0797
愈	-11.0797
▁mammal	-11.0797
崩溃	-11.0797
志愿者	-11.0797
▁admit	-11.0797
那一刻	-11.0797
探讨	-11.0798
▁lawyer	-11.0798
连续	-11.0798
▁electrical	-11.0799
感官	-11.0802
鱼类	-11.0803
▁string	-11.0809
原本	-11.0812
▁arrived	-11.0812
房屋	-11.0827
去世	-11.0846
缘	-11.0858
é	-11.0859
▁heavy	-11.0859
▁malaria	-11.0859
▁perception	-11.0859
▁yesterday	-11.0859
叉	-11.0859
叹	-11.0859
妮	-11.0859
瘾	-11.0859
躲	-11.0859
甘	-11.0859
欣赏	-11.0859
魅力	-11.086
▁replica	-11.0861
▁Human	-11.0863
偏见	-11.0864
石头	-11.0873
uthern	-11.0874
对抗	-11.0888
越多	-11.0898
法则	-11.0918
冬	-11.0922
棵	-11.0922
铺	-11.0922
▁accurate	-11.0922
▁ordinary	-11.0922
▁privilege	-11.0922
宏	-11.0922
挡	-11.0922
描绘	-11.0922
盐	-11.0922
▁peak	-11.0922
▁initial	-11.0922
▁awful	-11.0922
▁transition	-11.0924
▁equation	-11.0926
年级	-11.0932
▁crop	-11.094
friend	-11.0941
解放	-11.0951
自主	-11.097
▁broke	-11.0974
辨	-11.0982
穆	-11.0985
传感器	-11.0985
寒	-11.0985
尘	-11.0985
▁dolphin	-11.0985
肝	-11.0985
▁evil	-11.0985
▁volume	-11.0985
▁medium	-11.0985
▁extract	-11.0986
喜爱	-11.0988
物理学家	-11.0992
爆发	-11.0993
认同	-11.0995
单位	-11.0999
什么东西	-11.1015
写作	-11.1031
设施	-11.1035
确	-11.1047
贫	-11.1048
晨	-11.1048
▁convention	-11.1048
▁abstract	-11.1048
▁empty	-11.1048
▁prototype	-11.1048
▁quarter	-11.1048
巴基斯坦	-11.1048
荡	-11.1048
青少年	-11.1048
▁Japanese	-11.1048
▁maintain	-11.1048
狼	-11.1048
▁distinct	-11.1048
▁Center	-11.1048
游泳	-11.1048
▁title	-11.1048
▁sugar	-11.1049
防止	-11.1049
替代	-11.1049
抽象	-11.1049
▁instant	-11.105
局限	-11.1051
▁abuse	-11.1053
▁geo	-11.1053
停下来	-11.1054
经济增长	-11.1056
做些	-11.1064
▁tape	-11.1074
反而	-11.1083
▁tip	-11.1093
▁habit	-11.1093
拥	-11.1096
生活方式	-11.1105
▁prefer	-11.1109
炸	-11.1111
缝	-11.1112
▁interpret	-11.1112
傻	-11.1112
劲	-11.1112
堵	-11.1112
珠	-11.1112
髓	-11.1112
保险	-11.1112
魔术	-11.1112
频率	-11.1114
▁desk	-11.1114
▁illness	-11.1114
资助	-11.1115
▁losing	-11.1115
查看	-11.1116
无聊	-11.112
敌人	-11.1133
过滤	-11.1139
学术	-11.1148
敌	-11.1155
▁hire	-11.1156
镜头	-11.1162
推进	-11.1172
宜	-11.1175
▁Amazon	-11.1176
湿	-11.1176
猛	-11.1176
探险	-11.1176
得知	-11.1176
我和我的	-11.1177
▁toilet	-11.1179
听众	-11.1181
▁cutting	-11.1183
微笑	-11.1185
想象力	-11.1203
Google	-11.1203
气体	-11.1217
发送	-11.1238
骗	-11.124
番	-11.124
▁School	-11.124
▁establish	-11.124
▁tomorrow	-11.124
▁underneath	-11.124
▁tube	-11.124
灵魂	-11.1241
芯片	-11.1241
▁convert	-11.1241
清洁	-11.1242
▁orbit	-11.1242
战斗	-11.1242
定律	-11.1243
护士	-11.1244
进程	-11.1263
Star	-11.1286
iff	-11.1292
烦	-11.1305
姿	-11.1305
▁Francisco	-11.1305
▁Harvard	-11.1305
▁properties	-11.1305
Please	-11.1305
讨厌	-11.1305
▁tribe	-11.1306
统治	-11.1306
勇气	-11.1306
哈佛	-11.1306
剩下的	-11.1307
设置	-11.1307
顺利	-11.131
预期	-11.1311
▁rapidly	-11.1313
▁flip	-11.1315
变得更加	-11.1318
▁protection	-11.1335
▁consume	-11.1344
▁mention	-11.1354
▁classic	-11.1354
覆	-11.137
滋	-11.1371
栏	-11.1371
▁embrace	-11.1371
▁inequality	-11.1371
▁variety	-11.1371
▁换句话说	-11.1371
俗	-11.1371
剥	-11.1371
堪	-11.1371
奔	-11.1371
廊	-11.1371
慰	-11.1371
拔	-11.1371
蒸	-11.1371
虐	-11.1371
Wikipedia	-11.1371
恰恰	-11.1371
serving	-11.1372
▁reef	-11.1373
足以	-11.1376
▁stranger	-11.1376
几十年	-11.1376
周期	-11.138
事故	-11.138
▁Last	-11.1383
▁peer	-11.1399
植入	-11.14
例如	-11.1412
了不起的	-11.1421
▁essential	-11.1423
军事	-11.1435
污	-11.1436
摄像机	-11.1437
绑	-11.1437
罐	-11.1437
裔	-11.1437
▁Britain	-11.1437
▁battery	-11.1437
▁doubt	-11.1437
鸣	-11.1437
▁snow	-11.1437
治愈	-11.1437
▁management	-11.1442
资本主义	-11.1445
身处	-11.1448
骨头	-11.1451
两倍	-11.1453
48	-11.1453
人均	-11.1468
source	-11.1472
以及其他	-11.1483
规定	-11.1493
前往	-11.1501
搜	-11.1502
慈	-11.1502
刷	-11.1502
伞	-11.1503
▁demonstrate	-11.1503
▁emerging	-11.1503
▁encounter	-11.1503
▁facing	-11.1503
▁possibilities	-11.1503
削	-11.1503
酱	-11.1503
▁Frank	-11.1503
▁balloon	-11.1503
▁poetry	-11.1503
▁carefully	-11.1503
▁Street	-11.1503
▁educate	-11.1503
▁fiction	-11.1503
▁James	-11.1503
厕所	-11.1504
承受	-11.1505
跨越	-11.1505
协调	-11.1506
交换	-11.1508
▁gang	-11.1508
黑色	-11.1508
▁rocket	-11.151
▁rational	-11.1512
链接	-11.1513
南部	-11.1514
▁grid	-11.1514
火车	-11.1519
▁exam	-11.152
▁equ	-11.152
爱情	-11.1522
物理学	-11.1524
ridge	-11.1541
2003	-11.1541
整合	-11.1545
2001	-11.1545
▁celebrate	-11.1569
▁explanation	-11.1569
▁illegal	-11.1569
赌	-11.1569
逝	-11.1569
▁filter	-11.1569
▁sweet	-11.1569
太棒了	-11.1569
庆祝	-11.1569
▁incentive	-11.157
▁protest	-11.157
看不见	-11.157
乔治	-11.157
瑞典	-11.157
课堂	-11.157
保守	-11.1571
罪犯	-11.1571
交互	-11.1571
坚信	-11.1573
家族	-11.1574
分裂	-11.1575
▁spring	-11.1576
底部	-11.1576
确信	-11.1576
运转	-11.1577
分散	-11.1577
正义	-11.1577
远离	-11.158
▁pure	-11.1584
作业	-11.1593
公正	-11.1602
▁Ven	-11.162
▁increasing	-11.1623
▁absolute	-11.1623
邦	-11.1636
辞	-11.1637
▁Pakistan	-11.1637
▁client	-11.1637
▁conclusion	-11.1637
▁surgeon	-11.1637
烂	-11.1637
郊	-11.1637
▁microbes	-11.1637
▁guide	-11.1637
▁gentlemen	-11.1637
岩石	-11.1637
▁prediction	-11.1639
▁specifically	-11.164
鸟类	-11.1641
胜利	-11.1641
满意	-11.1642
动态	-11.1643
Bar	-11.1648
自然界	-11.1653
▁exception	-11.1663
编程	-11.1666
培	-11.1703
▁Congress	-11.1704
▁length	-11.1704
珊瑚礁	-11.1704
罕	-11.1704
芝加哥	-11.1704
卓	-11.1704
▁Could	-11.1704
本质上	-11.1704
扩展	-11.1704
疼痛	-11.1704
▁pump	-11.1704
▁chemistry	-11.1705
▁review	-11.1705
指挥	-11.1705
外交	-11.1713
桌子	-11.1717
各自	-11.1722
精力	-11.1723
玩家	-11.1726
20%	-11.1735
区分	-11.1765
策	-11.1771
琴	-11.1772
吻	-11.1772
怜	-11.1772
旧金山	-11.1772
▁vulnerable	-11.1772
柏	-11.1772
波士顿	-11.1772
津	-11.1772
誉	-11.1772
▁hyper	-11.1772
▁manipulat	-11.1772
繁荣	-11.1772
灵活	-11.1775
▁addict	-11.1775
显得	-11.1777
法案	-11.1777
界面	-11.178
▁DH	-11.1783
▁presentation	-11.179
▁statement	-11.1831
雕	-11.184
耻	-11.1841
▁physicist	-11.1841
▁producing	-11.1841
▁technological	-11.1841
柔	-11.1841
舒服	-11.1841
▁panel	-11.1841
退休	-11.1841
▁transfer	-11.1842
日常	-11.1842
节奏	-11.1842
具备	-11.1842
既然	-11.1843
树木	-11.1846
保罗	-11.1846
▁wrap	-11.185
克服	-11.1853
▁pray	-11.1853
深处	-11.1854
▁habitat	-11.1861
▁cup	-11.1864
▁hip	-11.1884
Ti	-11.1886
疗法	-11.1896
太阳系	-11.1909
鉴	-11.191
▁church	-11.191
▁pleasure	-11.191
恐怖主义	-11.191
陌生人	-11.191
▁swim	-11.191
粮食	-11.191
▁fruit	-11.191
冰川	-11.191
黄金	-11.1911
午	-11.1912
诗歌	-11.1913
乐队	-11.1914
▁passionate	-11.1914
反复	-11.1915
单独	-11.1916
▁musician	-11.1921
的做法	-11.1921
方便	-11.1925
命运	-11.1927
在我看来	-11.1928
灭	-11.1978
▁danger	-11.1978
粪	-11.1979
▁Chicago	-11.1979
▁circumstance	-11.1979
▁occasion	-11.1979
亚马逊	-11.1979
宁	-11.1979
尸	-11.1979
斑	-11.1979
杜	-11.1979
螂	-11.1979
迟	-11.1979
▁regard	-11.1979
债	-11.1979
▁psycho	-11.1979
▁Bank	-11.1979
祖母	-11.1979
▁kilo	-11.1981
宣布	-11.1982
团结	-11.1982
▁Since	-11.1984
▁lady	-11.1986
▁hotel	-11.1988
站起来	-11.1989
联系起来	-11.1992
▁critic	-11.2002
law	-11.2002
▁director	-11.2008
Wow	-11.201
好玩	-11.2015
谢谢大家	-11.2021
第二天	-11.2026
唤	-11.2049
伏	-11.2049
垂	-11.2049
皇	-11.2049
▁Canada	-11.2049
▁teeth	-11.2049
▁rescue	-11.2049
▁studio	-11.2049
▁firm	-11.2049
捕捉	-11.2049
利润	-11.2049
▁historical	-11.2049
戏剧	-11.205
监控	-11.205
▁corruption	-11.205
▁pipe	-11.205
ference	-11.2052
航空	-11.2053
未知	-11.2054
▁loud	-11.2055
▁mile	-11.2064
消除	-11.2085
传达	-11.2106
Z	-11.2107
鲨	-11.2112
振	-11.2119
仁	-11.2119
蝠	-11.2119
▁Institute	-11.2119
▁mosquito	-11.2119
▁valuable	-11.2119
显微镜	-11.2119
▁perceive	-11.2119
▁status	-11.2119
厨房	-11.212
▁jail	-11.212
遥远	-11.2121
采集	-11.2121
自豪	-11.2121
▁propose	-11.2123
▁grain	-11.2123
变得越来越	-11.2124
▁winter	-11.2129
父	-11.2131
▁label	-11.2133
命名	-11.2134
在接下来的	-11.2136
那个时候	-11.2144
塑	-11.2149
敏	-11.2189
康	-11.2189
译	-11.219
训	-11.219
腐	-11.219
浸	-11.219
▁academic	-11.219
▁announce	-11.219
▁kitchen	-11.219
▁penguin	-11.219
▁phrase	-11.219
▁spectrum	-11.219
贩	-11.219
饱	-11.219
▁France	-11.219
饥饿	-11.219
焦虑	-11.219
噪音	-11.219
▁plot	-11.2191
餐厅	-11.2191
▁decline	-11.2193
液体	-11.2196
▁graphic	-11.22
50%	-11.2203
储存	-11.2219
非常有趣	-11.2241
臂	-11.2253
view	-11.2258
▁accomplish	-11.2262
巢	-11.2262
▁calculate	-11.2262
▁chimpanzee	-11.2262
▁unusual	-11.2262
委员会	-11.2262
▁courage	-11.2262
一会儿	-11.2262
扩张	-11.2262
隐私	-11.2262
▁shame	-11.2263
干净	-11.2263
▁Anyway	-11.2263
▁staff	-11.2264
心理学	-11.2272
▁Yet	-11.2274
页面	-11.2281
更容易	-11.229
词汇	-11.2303
现今	-11.2309
▁appreciate	-11.2315
奋	-11.2333
抛	-11.2333
▁manufacturing	-11.2334
▁molecular	-11.2334
▁primary	-11.2334
▁teenager	-11.2334
抬	-11.2334
倡	-11.2334
歇	-11.2334
爷	-11.2334
砍	-11.2334
▁pitch	-11.2334
▁split	-11.2334
▁clever	-11.2334
▁steel	-11.2334
掌控	-11.2334
框架	-11.2334
分辨	-11.2337
▁evolutionary	-11.2337
▁meaningful	-11.2338
午餐	-11.2339
从来不	-11.234
试试	-11.2397
▁comfort	-11.2404
海底	-11.2405
屏	-11.2406
惜	-11.2406
硅	-11.2406
雾	-11.2406
▁liquid	-11.2406
▁integrate	-11.2406
▁sculpture	-11.2406
▁branch	-11.2406
目睹	-11.2406
屠杀	-11.2406
印刷	-11.2406
▁internal	-11.2407
保障	-11.2407
赚钱	-11.2408
强迫	-11.241
法官	-11.2412
▁prime	-11.2412
burg	-11.2432
▁thin	-11.2435
看起来像	-11.2444
oxi	-11.2457
下午	-11.2471
跃	-11.2478
纽	-11.2478
邻	-11.2479
址	-11.2479
氏	-11.2479
添	-11.2479
篮	-11.2479
询	-11.2479
豹	-11.2479
▁definitely	-11.2479
▁department	-11.2479
▁variation	-11.2479
皆	-11.2479
▁infinite	-11.2479
▁Christian	-11.2479
▁analog	-11.2479
燃烧	-11.2479
▁shall	-11.248
关闭	-11.2481
协议	-11.2481
经营	-11.2482
▁bike	-11.2483
威尔	-11.2489
▁flies	-11.2489
部件	-11.2496
▁Part	-11.2503
80%	-11.2506
▁German	-11.2541
自杀	-11.2546
深深	-11.2547
部位	-11.2551
净	-11.2551
涉	-11.2551
digit	-11.2552
敲	-11.2553
纷	-11.2553
裤	-11.2553
▁radiation	-11.2553
▁silence	-11.2553
▁Women	-11.2553
▁worldwide	-11.2553
▁applied	-11.2553
▁tank	-11.2553
▁biologist	-11.2553
▁spider	-11.2553
▁Boston	-11.2553
联邦	-11.2553
歧视	-11.2553
▁alien	-11.2554
▁severe	-11.2554
含义	-11.2554
睡觉	-11.2554
脑袋	-11.2556
▁icon	-11.2556
找不到	-11.2558
现有的	-11.2558
花粉	-11.2559
▁productive	-11.2567
▁apartment	-11.2572
几千	-11.2593
3000	-11.2594
驾	-11.2627
▁password	-11.2627
囊	-11.2627
斥	-11.2627
谜	-11.2627
▁harvest	-11.2627
理查德	-11.2627
至关重要	-11.2627
▁arrest	-11.2627
钢琴	-11.2627
战略	-11.2629
▁awareness	-11.263
部队	-11.2635
边界	-11.2636
讲话	-11.2647
▁citizen	-11.2655
掌声	-11.266
促使	-11.2665
英文	-11.267
炸弹	-11.2699
裁	-11.2701
鲍	-11.2701
泪	-11.2701
膝	-11.2701
▁Charles	-11.2701
▁illusion	-11.2701
▁intervention	-11.2701
▁sophisticated	-11.2701
▁violent	-11.2701
役	-11.2701
▁employees	-11.2701
▁plus	-11.2701
▁attitude	-11.2701
▁finance	-11.2701
回忆	-11.2702
模糊	-11.2702
悲剧	-11.2703
▁atoms	-11.2705
质疑	-11.2705
安静	-11.2705
每周	-11.2707
证实	-11.2708
飞船	-11.2708
10%	-11.2708
河流	-11.2709
▁collaboration	-11.271
▁fake	-11.2713
势力	-11.2714
数据库	-11.273
所谓	-11.2743
享	-11.2749
心灵	-11.2766
夏	-11.2772
▁conservation	-11.2777
▁democratic	-11.2777
伽	-11.2777
瞧	-11.2777
▁confront	-11.2777
俩	-11.2777
蛇	-11.2777
▁zoom	-11.2777
▁hydrogen	-11.2777
▁route	-11.2777
▁此外	-11.2777
▁reverse	-11.2779
降落	-11.2779
网页	-11.2779
▁settle	-11.2781
▁fiber	-11.2782
革新	-11.2784
来到这里	-11.2784
新鲜	-11.2787
▁strip	-11.2788
▁urge	-11.2801
圣经	-11.2829
ddle	-11.2832
继	-11.2852
捷	-11.2852
▁ingredient	-11.2852
▁innovative	-11.2852
▁observation	-11.2852
▁psychological	-11.2852
哺乳动物	-11.2852
瓜	-11.2852
畅	-11.2852
舍	-11.2852
蛙	-11.2852
旨	-11.2852
尺寸	-11.2852
▁false	-11.2852
▁transmit	-11.2852
圣诞	-11.2852
毁灭	-11.2853
编码	-11.2853
孤独	-11.2853
▁nerve	-11.2855
雨林	-11.2856
花园	-11.2859
天堂	-11.2859
▁Port	-11.286
抗议	-11.286
伊斯兰	-11.2864
proof	-11.2867
Look	-11.2868
1%	-11.2885
作为一名	-11.2886
bringing	-11.2892
▁compete	-11.2893
福利	-11.2914
通讯	-11.2915
染	-11.2926
障	-11.2928
▁activities	-11.2929
▁diagnose	-11.2929
▁empathy	-11.2929
▁framework	-11.2929
▁providing	-11.2929
井	-11.2929
崇	-11.2929
炎	-11.2929
▁analyze	-11.2929
帽	-11.2929
毫无疑问	-11.2929
▁escape	-11.2929
惩罚	-11.2929
▁predator	-11.2929
▁intention	-11.2929
▁Four	-11.2929
▁prize	-11.2929
▁migrat	-11.2929
顾客	-11.293
数码	-11.2935
实在是	-11.2936
▁loop	-11.2937
所需要的	-11.2946
字典	-11.2962
促	-11.2964
▁ultimate	-11.2992
激素	-11.2996
龄	-11.2998
递	-11.3005
框	-11.3005
纵	-11.3005
驶	-11.3005
▁Perhaps	-11.3006
▁awesome	-11.3006
▁destruction	-11.3006
▁gravity	-11.3006
▁horizon	-11.3006
▁lecture	-11.3006
▁mortality	-11.3006
▁physician	-11.3006
・	-11.3006
丛	-11.3006
倾向于	-11.3006
墓	-11.3006
▁pilot	-11.3006
斜	-11.3006
腹	-11.3006
▁milk	-11.3006
▁sphere	-11.3006
渐渐	-11.3006
▁phase	-11.3006
ifying	-11.3006
▁toxic	-11.3006
负担	-11.3006
序列	-11.3008
几周	-11.3019
▁agent	-11.3024
开启	-11.303
▁sustain	-11.308
困	-11.3081
朵	-11.3083
擦	-11.3083
▁Science	-11.3083
▁Valley	-11.3083
▁fortunate	-11.3083
▁permanent	-11.3083
▁pollution	-11.3083
串	-11.3083
▁complain	-11.3083
雇佣	-11.3083
竟然	-11.3084
广播	-11.3084
▁reference	-11.3084
沉默	-11.3084
概率	-11.3085
▁equality	-11.309
▁nest	-11.3092
眼镜	-11.3113
遭遇	-11.3116
born	-11.3134
立即	-11.3136
axis	-11.3143
只需	-11.3154
▁opera	-11.3158
棉	-11.3161
膨胀	-11.3161
▁license	-11.3161
▁relevant	-11.3161
悟	-11.3161
谐	-11.3161
讽刺	-11.3161
遵循	-11.3161
▁silk	-11.3161
▁retire	-11.3161
缺陷	-11.3162
宝宝	-11.3162
始终	-11.3162
永久	-11.3162
鲸鱼	-11.3163
美洲	-11.3164
融入	-11.3165
增强	-11.3165
观测	-11.3166
心理学家	-11.3167
组装	-11.317
▁suck	-11.3172
▁dense	-11.3173
foot	-11.3178
half	-11.3181
product	-11.3185
精神病	-11.3186
日常生活	-11.3222
叙	-11.324
9/11	-11.324
▁concrete	-11.324
▁efficiency	-11.324
▁policies	-11.324
▁privacy	-11.324
亦	-11.324
祈祷	-11.324
恐怖分子	-11.324
▁infection	-11.324
▁computing	-11.324
▁flash	-11.324
▁While	-11.324
▁knee	-11.324
▁mechanical	-11.324
欺骗	-11.324
▁Paris	-11.324
▁repair	-11.3241
▁Also	-11.3241
▁hoping	-11.3242
▁ought	-11.3243
▁printing	-11.3244
形容	-11.3246
成熟	-11.3246
干预	-11.3248
▁journal	-11.3255
[	-11.3262
▁evolve	-11.3294
▁constant	-11.3306
▁clothes	-11.3319
▁cortex	-11.3319
▁deploy	-11.3319
惠	-11.3319
攀	-11.3319
炭	-11.3319
狮	-11.3319
痕	-11.3319
阔	-11.3319
▁Nobody	-11.3319
兼	-11.3319
朱	-11.3319
抗生素	-11.3319
▁Robert	-11.3319
MRI	-11.3319
鼓舞	-11.332
▁section	-11.332
▁Talk	-11.332
想一想	-11.332
▁dropped	-11.3321
▁underwater	-11.3321
完善	-11.3322
整整	-11.3324
▁authority	-11.3325
反射	-11.3326
90%	-11.3327
盈	-11.3399
赤	-11.3399
resolution	-11.3399
▁activist	-11.3399
▁greenhouse	-11.3399
▁microscope	-11.3399
▁murder	-11.3399
丑	-11.3399
卢	-11.3399
牵	-11.3399
逼	-11.3399
闹	-11.3399
▁afternoon	-11.3399
▁computation	-11.3399
▁housing	-11.3399
▁visible	-11.3399
▁witness	-11.3399
▁polar	-11.34
耳朵	-11.34
▁behave	-11.34
货币	-11.34
绝望	-11.3401
设立	-11.3403
▁bug	-11.3462
艰	-11.3479
究	-11.348
▁rig	-11.348
忠	-11.348
▁cluster	-11.348
贯	-11.348
▁fabric	-11.348
遗憾	-11.348
阻碍	-11.348
康复	-11.3481
▁tonight	-11.3481
瑞士	-11.3482
司机	-11.3482
参观	-11.3482
long	-11.3495
见证	-11.3497
确认	-11.3552
豪	-11.3559
攻	-11.356
彻	-11.3561
撒	-11.3561
墨	-11.3561
▁Project	-11.3561
▁advice	-11.3561
▁challenging	-11.3561
▁literature	-11.3561
▁paradigm	-11.3561
吞	-11.3561
浴	-11.3561
耀	-11.3561
劣	-11.3561
大气层	-11.3561
拓	-11.3561
▁drill	-11.3561
▁implement	-11.3561
▁swimming	-11.3561
LED	-11.3561
幽默	-11.3561
▁intense	-11.3561
挣扎	-11.3561
困境	-11.3562
▁terrorism	-11.3562
▁thick	-11.3562
乐趣	-11.3562
▁unknown	-11.3563
集团	-11.3565
权威	-11.3565
月份	-11.3566
▁wound	-11.3567
▁weigh	-11.3581
帝国	-11.3591
祖父	-11.362
稳	-11.3642
赋	-11.3643
帐	-11.3643
虾	-11.3643
▁club	-11.3643
▁infected	-11.3643
▁navigat	-11.3643
▁psychology	-11.3643
扇	-11.3643
旱	-11.3643
是什么样子	-11.3643
▁deserve	-11.3643
▁memories	-11.3643
▁stretch	-11.3643
▁drone	-11.3643
▁smoke	-11.3643
▁Adam	-11.3643
▁Latin	-11.3644
窗户	-11.3644
愉快	-11.3644
worm	-11.3649
▁Martin	-11.365
最基本的	-11.3651
▁alter	-11.3652
伊斯兰教	-11.3713
环绕	-11.3721
丘	-11.3726
奉	-11.3726
clusive	-11.3726
▁contrast	-11.3726
▁exploration	-11.3726
▁telephone	-11.3726
奸	-11.3726
橡	-11.3726
盯	-11.3726
稿	-11.3726
纠	-11.3726
衍	-11.3726
抱怨	-11.3726
▁Health	-11.3726
公寓	-11.3726
巴黎	-11.3727
悲伤	-11.3727
▁occurred	-11.3728
▁sunlight	-11.3728
收获	-11.3728
偶然	-11.3728
▁wireless	-11.3728
传输	-11.3729
即兴	-11.3729
刚果	-11.373
▁exhibition	-11.3732
旋	-11.3808
遥	-11.3808
档	-11.3809
▁Unfortunately	-11.3809
▁horrible	-11.3809
▁motivate	-11.3809
▁shadow	-11.3809
峡	-11.3809
枝	-11.3809
拨	-11.3809
谨	-11.3809
媒介	-11.3809
▁nowhere	-11.3809
一小部分	-11.3809
仿佛	-11.3809
农村	-11.381
▁spiritual	-11.381
绘制	-11.381
荷兰	-11.3811
灯泡	-11.3811
结尾	-11.3812
遍布	-11.3812
▁House	-11.3813
监视	-11.3814
▁tele	-11.3814
2%	-11.3828
called	-11.3864
▁disrupt	-11.3893
厘	-11.3893
▁Global	-11.3893
▁Number	-11.3893
▁Obama	-11.3893
▁Thomas	-11.3893
榜	-11.3893
▁presence	-11.3893
陪	-11.3893
NGO	-11.3893
▁reject	-11.3893
与众不同	-11.3893
▁vertical	-11.3893
抱歉	-11.3893
▁instruction	-11.3893
舒适	-11.3894
shirt	-11.3894
▁marine	-11.3894
▁steal	-11.3894
折叠	-11.3894
喜剧	-11.3895
摄影师	-11.3895
▁relie	-11.3897
▁commitment	-11.3906
break	-11.3936
Yeah	-11.3937
隔离	-11.3949
绝大多数	-11.3964
辩	-11.3977
▁September	-11.3978
▁somewhat	-11.3978
岗	-11.3978
挽	-11.3978
疲	-11.3978
砖	-11.3978
罩	-11.3978
▁Apple	-11.3978
▁constrain	-11.3978
摔	-11.3978
▁Something	-11.3978
▁depth	-11.3978
按钮	-11.3978
▁cyber	-11.3978
纪念	-11.3978
乡村	-11.3979
绘画	-11.3979
▁rush	-11.3979
▁attend	-11.398
酒店	-11.398
▁flew	-11.398
借助	-11.3981
▁hill	-11.3981
收益	-11.3982
American	-11.4021
匹	-11.4063
挣	-11.4063
▁entrepreneurs	-11.4063
rhythm	-11.4063
▁motivation	-11.4063
▁resistance	-11.4063
▁revenue	-11.4063
▁secure	-11.4063
前所未有的	-11.4063
涵	-11.4063
assemble	-11.4063
摧毁	-11.4063
捐赠	-11.4064
详细	-11.4064
玉米	-11.4064
▁angry	-11.4064
▁sustainability	-11.4064
联盟	-11.4064
批评	-11.4064
评价	-11.4064
占据	-11.4065
车祸	-11.4065
适用于	-11.4066
失望	-11.4067
▁mice	-11.4067
▁rape	-11.4103
植	-11.4108
▁suppose	-11.4124
▁favor	-11.4149
昂	-11.4149
▁Angeles	-11.415
▁chapter	-11.415
▁grandfather	-11.415
▁phenomena	-11.415
太平洋	-11.415
笨	-11.415
腔	-11.415
腾	-11.415
巧克力	-11.415
这个样子	-11.415
勇敢	-11.415
囚犯	-11.415
队伍	-11.415
怀孕	-11.415
▁acid	-11.4151
蛋白	-11.4151
创伤	-11.4153
趣	-11.4154
盒	-11.4231
毕	-11.4235
肤	-11.4236
啤酒	-11.4237
土耳其	-11.4237
瘫	-11.4237
艇	-11.4237
▁bicycle	-11.4237
▁diagram	-11.4237
▁flood	-11.4237
▁laboratory	-11.4237
▁manufacture	-11.4237
加利福尼亚	-11.4237
涨	-11.4237
▁parallel	-11.4237
贾	-11.4237
RNA	-11.4237
欲望	-11.4237
抵抗	-11.4238
解答	-11.4239
▁inject	-11.4245
performing	-11.4273
▁inspire	-11.4299
8%	-11.4322
彼	-11.4323
communica	-11.4323
剑	-11.4324
iPod	-11.4324
▁Before	-11.4324
▁centuries	-11.4324
▁psychologist	-11.4324
▁ritual	-11.4324
募	-11.4324
宿	-11.4324
毯	-11.4324
肖	-11.4324
臭	-11.4324
某种意义上	-11.4324
振奋	-11.4324
困扰	-11.4325
荣幸	-11.4325
▁therapy	-11.4325
▁birthday	-11.4325
▁leap	-11.4326
法庭	-11.4326
▁Act	-11.4328
辆车	-11.4354
经典	-11.4357
Okay	-11.4384
陷	-11.441
▁Pacific	-11.4413
▁causing	-11.4413
▁discipline	-11.4413
▁hormone	-11.4413
▁medication	-11.4413
▁narrow	-11.4413
栖息地	-11.4413
督	-11.4413
糖尿病	-11.4413
契	-11.4413
▁piano	-11.4413
▁ladies	-11.4413
▁solving	-11.4413
▁march	-11.4414
潜在的	-11.4421
确切	-11.4436
▁invite	-11.4477
挥	-11.4498
蜜	-11.4502
巾	-11.4502
浅	-11.4502
▁unexpected	-11.4502
妥	-11.4502
贫民窟	-11.4502
▁struck	-11.4502
▁transplant	-11.4502
显而易见	-11.4502
▁barrier	-11.4502
休息	-11.4503
折磨	-11.4503
亲爱的	-11.4503
哪怕	-11.4503
轻松	-11.4504
今晚	-11.4504
▁database	-11.4514
均	-11.4546
存储	-11.4554
▁cheat	-11.4568
映	-11.4591
祝	-11.4592
▁gentle	-11.4592
▁Museum	-11.4592
▁emergency	-11.4592
▁identical	-11.4592
▁lifestyle	-11.4592
▁mathematician	-11.4592
▁trigger	-11.4592
▁domestic	-11.4592
抚	-11.4592
棕	-11.4592
烹	-11.4592
▁About	-11.4592
▁White	-11.4592
凌晨	-11.4592
▁animation	-11.4592
▁extent	-11.4592
▁hook	-11.4593
匹配	-11.4593
capita	-11.4593
▁continuous	-11.4594
猜测	-11.4595
丰	-11.4683
挖	-11.4683
掩	-11.4683
▁regret	-11.4683
▁scenario	-11.4683
嗨	-11.4683
戒	-11.4683
▁Christmas	-11.4683
▁economies	-11.4683
▁library	-11.4683
嘲	-11.4683
开玩笑	-11.4683
▁floating	-11.4683
▁proportion	-11.4683
有史以来	-11.4683
向你们展示	-11.4683
▁Basically	-11.4683
1998	-11.4683
▁guard	-11.4683
依旧	-11.4684
缓慢	-11.4684
▁regime	-11.4685
营销	-11.4685
帮忙	-11.4685
搭建	-11.4685
▁raw	-11.4686
▁Medic	-11.4698
aunt	-11.4701
沟	-11.4744
验证	-11.4752
糊	-11.4774
扫	-11.4775
▁reserve	-11.4775
夹	-11.4775
御	-11.4775
▁correspond	-11.4775
▁genius	-11.4775
▁thumb	-11.4775
姓	-11.4775
痴	-11.4775
▁Black	-11.4775
▁welcome	-11.4775
操纵	-11.4775
拥抱	-11.4775
匿名	-11.4775
先进的	-11.4776
残疾	-11.4776
代替	-11.4777
幻觉	-11.4777
被认为是	-11.479
讨	-11.4866
疫	-11.4867
▁defense	-11.4867
▁exponential	-11.4867
催	-11.4867
▁Remember	-11.4867
▁Voice	-11.4867
▁measuring	-11.4867
▁suspect	-11.4867
卧	-11.4867
▁Finally	-11.4867
osphere	-11.4868
厉害	-11.4868
▁carried	-11.4868
韩国	-11.4868
▁breed	-11.4869
优雅	-11.4869
最棒的	-11.4923
佳	-11.494
伟	-11.4948
用它来	-11.4958
▁instinct	-11.4961
▁conclude	-11.4961
▁corporate	-11.4961
▁engaging	-11.4961
▁judgment	-11.4961
化合物	-11.4961
淋	-11.4961
姑	-11.4961
悔	-11.4961
染色体	-11.4961
温室气体	-11.4961
笔记本电脑	-11.4961
▁defend	-11.4961
volving	-11.4961
消灭	-11.4962
财政	-11.4962
银	-11.4973
所处的	-11.4976
▁blu	-11.4998
level	-11.5044
肌	-11.5055
欺	-11.5055
▁desperate	-11.5055
【	-11.5055
▁automatically	-11.5055
▁exploit	-11.5055
▁frankly	-11.5055
▁neither	-11.5055
▁portrait	-11.5055
▁renewable	-11.5055
】	-11.5055
勤	-11.5055
娃	-11.5055
▁session	-11.5055
挖掘	-11.5055
扩散	-11.5055
困惑	-11.5055
牙齿	-11.5056
▁sweat	-11.5056
Sahara	-11.5056
▁trace	-11.5062
▁Gene	-11.5062
惧	-11.515
亨	-11.515
▁January	-11.515
▁William	-11.515
▁absorb	-11.515
▁crucial	-11.515
▁distributed	-11.515
▁grateful	-11.515
笼	-11.515
▁clue	-11.515
▁scream	-11.515
伪	-11.515
▁honey	-11.5151
支撑	-11.5151
档案	-11.5151
惊喜	-11.5152
成年人	-11.516
▁colleague	-11.5235
穴	-11.5246
遮	-11.5247
▁Sweden	-11.5247
▁hunger	-11.5247
▁reduction	-11.5247
吐	-11.5247
柜	-11.5247
濒	-11.5247
▁Central	-11.5247
▁Foundation	-11.5247
全球变暖	-11.5247
剖	-11.5247
葬	-11.5247
▁drove	-11.5247
▁Next	-11.5247
▁implant	-11.5247
依据	-11.5247
▁overcome	-11.5249
▁tune	-11.5258
expl	-11.5308
汁	-11.5344
~	-11.5344
▁Greek	-11.5344
▁adventure	-11.5344
▁knock	-11.5344
▁obsessed	-11.5344
▁senior	-11.5344
金枪鱼	-11.5344
▁plug	-11.5344
▁preserve	-11.5344
蕾	-11.5344
▁strike	-11.5344
▁Smith	-11.5344
▁agenda	-11.5344
▁silent	-11.5344
螺旋	-11.5344
叙利亚	-11.5344
▁vital	-11.5344
积累	-11.5345
拜访	-11.5345
这个星球上	-11.5345
果蝇	-11.5358
▁comic	-11.5372
scribe	-11.5386
孩	-11.541
掘	-11.5442
史蒂夫	-11.5442
詹姆斯	-11.5442
▁concentrate	-11.5442
▁dancing	-11.5442
▁heaven	-11.5442
▁immune	-11.5442
▁pregnant	-11.5442
婆	-11.5442
▁insurance	-11.5442
娘	-11.5442
捞	-11.5442
▁enemy	-11.5442
▁trauma	-11.5442
▁properly	-11.5442
挪威	-11.5442
从根本上	-11.5442
▁tired	-11.5442
▁trait	-11.5444
衡	-11.5533
宗	-11.5533
柯	-11.5541
跌	-11.5541
▁authentic	-11.5541
哨	-11.5541
忌	-11.5541
蚀	-11.5541
▁earthquake	-11.5541
▁miracle	-11.5541
▁recognition	-11.5541
乳腺癌	-11.5541
冥	-11.5541
弊	-11.5541
耕	-11.5541
▁column	-11.5541
胃	-11.5541
▁Ghana	-11.5541
▁Space	-11.5541
▁Gulf	-11.5541
▁polio	-11.5541
爵士	-11.5541
▁shelter	-11.5541
撒谎	-11.5541
抛弃	-11.5541
▁shake	-11.5541
▁elite	-11.5542
▁utter	-11.5542
▁verb	-11.56
虑	-11.564
寿	-11.564
垫	-11.5641
弥	-11.5641
纽约时报	-11.5641
颂	-11.5641
▁International	-11.5641
▁Revolution	-11.5641
▁chocolate	-11.5641
▁exploring	-11.5641
▁external	-11.5641
梁	-11.5641
泉	-11.5641
晓	-11.5641
膀	-11.5742
舱	-11.5742
啥	-11.5742
轰	-11.5742
鸽	-11.5742
箭	-11.5843
遵	-11.5844
狭	-11.5844
恼	-11.5844
慌	-11.5844
燥	-11.5844
矩	-11.5844
紫	-11.5844
予	-11.5943
呃	-11.5947
宰	-11.5947
撕	-11.5947
斤	-11.5947
罢	-11.5947
贪	-11.5947
尝	-11.5995
q	-11.6037
概	-11.604
欣	-11.6051
怒	-11.6051
鹅	-11.6051
扣	-11.6051
李	-11.6051
泊	-11.6051
叛	-11.6051
奈	-11.6051
押	-11.6051
裸	-11.6051
阳	-11.6152
乏	-11.6156
卑	-11.6156
劫	-11.6156
渠	-11.6156
磷	-11.6156
尤	-11.6239
阅	-11.6261
屁	-11.6263
梭	-11.6263
鹰	-11.6263
况	-11.6368
择	-11.6369
郁	-11.637
蜡	-11.637
驼	-11.637
咬	-11.637
嵌	-11.637
慎	-11.637
昏	-11.637
烷	-11.637
篷	-11.637
糕	-11.6479
屈	-11.6479
裹	-11.6479
仓	-11.6479
棍	-11.6479
肾	-11.6479
汗	-11.6479
爆	-11.657
惯	-11.6589
挨	-11.6589
睁	-11.6589
菇	-11.6589
钉	-11.6589
颈	-11.6589
险	-11.6697
奢	-11.67
猿	-11.67
罚	-11.67
匠	-11.67
君	-11.67
尿	-11.67
沫	-11.67
谬	-11.67
渗	-11.67
喔	-11.67
须	-11.6812
塌	-11.6812
疏	-11.6812
硫	-11.6812
窃	-11.6812
翔	-11.6812
偿	-11.6812
距	-11.6924
趋	-11.6925
赏	-11.6926
抖	-11.6926
碑	-11.6926
筒	-11.6926
逮	-11.6926
鹿	-11.6926
齿	-11.704
措	-11.7041
–	-11.7041
凶	-11.7041
株	-11.7041
氮	-11.7041
凑	-11.7041
洪	-11.7041
皂	-11.7041
踪	-11.7154
泛	-11.7157
爸	-11.7157
踢	-11.7157
姥	-11.7157
砸	-11.7157
棘	-11.7157
‧	-11.7157
肚	-11.7157
饥	-11.7275
饿	-11.7275
+	-11.7275
杉	-11.7275
厄	-11.7275
宪	-11.7275
枯	-11.7275
锐	-11.7275
漆	-11.7275
坑	-11.7275
厨	-11.7393
仔	-11.7393
蛮	-11.7394
蕴	-11.7394
铜	-11.7394
呈	-11.7415
革	-11.75
己	-11.7511
绘	-11.7511
忽	-11.7513
漠	-11.7514
庆	-11.7514
舌	-11.7514
诈	-11.7514
掠	-11.7514
觅	-11.7514
颇	-11.7514
厦	-11.7514
帝	-11.7614
坠	-11.7636
椎	-11.7636
醇	-11.7636
黏	-11.7636
亏	-11.7636
唐	-11.7636
宅	-11.7636
扯	-11.7636
沼	-11.7636
括	-11.7758
袭	-11.7759
渐	-11.7759
矮	-11.776
竹	-11.776
酶	-11.776
骚	-11.776
勾	-11.776
晃	-11.776
缆	-11.776
颤	-11.776
棋	-11.776
眠	-11.7884
庄	-11.7884
笛	-11.7885
窝	-11.7885
锋	-11.7885
驻	-11.7885
殿	-11.7885
琼	-11.7885
仰	-11.801
巡	-11.8011
慷	-11.8011
滞	-11.8011
绵	-11.8011
仑	-11.8011
喘	-11.8011
拾	-11.8011
筋	-11.8011
芭	-11.8011
勇	-11.8137
伍	-11.8139
钥	-11.814
鳄	-11.814
爽	-11.814
碗	-11.814
缠	-11.814
讼	-11.814
陶	-11.814
呐	-11.814
溶	-11.814
摘	-11.814
黎	-11.8268
枚	-11.8269
韦	-11.8269
龟	-11.8269
兔	-11.8269
坛	-11.8269
披	-11.8269
秋	-11.8269
聘	-11.8269
寺	-11.8269
酪	-11.8269
酬	-11.8269
鸭	-11.8269
撤	-11.8401
糙	-11.8401
铅	-11.8401
券	-11.8401
愧	-11.8401
庭	-11.844
携	-11.8477
委	-11.8534
匙	-11.8534
涡	-11.8534
甸	-11.8534
飘	-11.8534
宠	-11.8534
抹	-11.8534
淫	-11.8534
贿	-11.8534
炉	-11.8534
妻	-11.8663
喀	-11.8669
辉	-11.8669
#	-11.8669
淹	-11.8669
趾	-11.8669
寂	-11.8669
拳	-11.8669
腕	-11.8669
饲	-11.8669
惹	-11.8669
挫	-11.8669
耍	-11.8804
歧	-11.8805
申	-11.8805
妨	-11.8806
踩	-11.8806
贷	-11.8945
薯	-11.8945
乙	-11.8945
仇	-11.8945
崖	-11.8945
隙	-11.8945
倦	-11.8945
溜	-11.8945
躯	-11.8945
析	-11.9082
济	-11.9085
疼	-11.9086
谦	-11.9086
橙	-11.9086
镑	-11.9086
僵	-11.9086
删	-11.9086
弓	-11.9086
柴	-11.9086
茎	-11.9086
绪	-11.9228
歉	-11.9229
鳍	-11.9229
扶	-11.9229
凉	-11.9229
吵	-11.9229
撰	-11.9229
葛	-11.9229
壶	-11.9229
稣	-11.9229
僚	-11.9374
瓷	-11.9374
垮	-11.9374
扑	-11.9374
泣	-11.9374
衫	-11.9374
鸿	-11.9374
卜	-11.9374
县	-11.9374
帆	-11.9374
缚	-11.9374
骂	-11.9374
侦	-11.9374
翁	-11.9374
轨	-11.9518
筑	-11.952
钩	-11.9521
畜	-11.9521
瞄	-11.9521
羽	-11.9521
腰	-11.9521
溪	-11.9521
眉	-11.9521
扮	-11.9669
凌	-11.967
崩	-11.967
丸	-11.967
汀	-11.967
盆	-11.967
谅	-11.967
愤	-11.9822
宴	-11.9822
垒	-11.9822
悠	-11.9822
膊	-11.9822
诀	-11.9822
酵	-11.9822
敞	-11.9822
栖	-11.9822
蔽	-11.9822
锻	-11.9822
旦	-11.9952
愉	-11.9974
虽	-11.9974
囚	-11.9975
欠	-11.9976
砂	-11.9976
孟	-11.9976
庇	-11.9976
桃	-11.9976
胳	-11.9976
庙	-11.9976
拐	-11.9976
牠	-12.0132
硕	-12.0132
肆	-12.0132
咒	-12.0132
宇	-12.0132
泌	-12.0132
雀	-12.0132
董	-12.0132
俯	-12.0291
皱	-12.0291
芒	-12.0291
詹	-12.0291
搏	-12.0291
浇	-12.0291
澡	-12.0291
泵	-12.0291
裙	-12.0291
闷	-12.0291
绩	-12.0449
捉	-12.0451
详	-12.0452
烛	-12.0452
窄	-12.0452
蕉	-12.0452
衬	-12.0452
吊	-12.0452
坟	-12.0452
捡	-12.0452
蝶	-12.0452
娅	-12.0452
拘	-12.0452
茫	-12.0452
颖	-12.0452
芽	-12.0452
唯	-12.0553
拒	-12.0609
舒	-12.0615
颁	-12.0616
呵	-12.0616
禽	-12.0616
陋	-12.0616
á	-12.0616
洒	-12.0616
铃	-12.0616
猴	-12.0776
竟	-12.0781
胖	-12.0782
悉	-12.0782
兄	-12.0782
淘	-12.0782
纱	-12.0782
蟹	-12.0782
霉	-12.0782
嫁	-12.0782
慕	-12.0782
澳	-12.0782
隧	-12.0782
敦	-12.0951
亩	-12.0952
侠	-12.0952
捏	-12.0952
誓	-12.0952
í	-12.0952
桨	-12.0952
筛	-12.0952
趟	-12.0952
祸	-12.1122
纤	-12.1123
铸	-12.1124
刹	-12.1124
杠	-12.1124
仙	-12.1124
锅	-12.1124
籍	-12.1298
蠢	-12.13
哺	-12.13
庸	-12.13
晕	-12.13
铭	-12.13
=	-12.13
爪	-12.13
萧	-12.13
貘	-12.13
躁	-12.13
咱	-12.13
渴	-12.1478
衔	-12.1478
炮	-12.1478
蓬	-12.1478
嗅	-12.1478
戚	-12.1478
搅	-12.1478
藉	-12.1478
砰	-12.1478
碱	-12.1478
舟	-12.1478
螺	-12.166
悯	-12.166
晒	-12.166
萎	-12.166
哀	-12.166
氨	-12.166
膏	-12.166
遣	-12.166
妓	-12.166
棚	-12.166
沾	-12.166
涯	-12.166
媒	-12.1842
络	-12.1844
琐	-12.1845
狠	-12.1845
霸	-12.1845
坎	-12.1845
峻	-12.1845
枢	-12.1845
浩	-12.1845
顽	-12.1845
淀	-12.1845
钞	-12.1845
馈	-12.2033
肿	-12.2034
_	-12.2034
―	-12.2034
竖	-12.2034
哮	-12.2034
恤	-12.2034
盔	-12.2034
蜣	-12.2034
噬	-12.2034
犬	-12.2034
皿	-12.2034
～	-12.2034
咪	-12.2034
瓣	-12.2034
描	-12.2226
胞	-12.2226
乃	-12.2226
届	-12.2226
堕	-12.2226
扼	-12.2226
浑	-12.2226
纺	-12.2226
赐	-12.2226
韵	-12.2226
驳	-12.2226
懒	-12.2226
胚	-12.2226
萝	-12.2226
冈	-12.2422
眨	-12.2422
莓	-12.2422
谊	-12.2422
楚	-12.2621
嘉	-12.2622
斧	-12.2622
噩	-12.2622
煮	-12.2622
瘦	-12.2622
饶	-12.2622
函	-12.2622
颅	-12.2622
姨	-12.2622
袖	-12.2826
挪	-12.2826
绒	-12.2827
稽	-12.2827
窍	-12.2827
贼	-12.2827
骸	-12.2827
掷	-12.2827
撇	-12.2827
熵	-12.2827
簧	-12.2827
雏	-12.2827
凸	-12.2827
挠	-12.2827
哩	-12.3035
妆	-12.3035
癫	-12.3035
嬉	-12.3035
炒	-12.3035
疚	-12.3035
悖	-12.3035
@	-12.3035
剔	-12.3035
聪	-12.3246
撑	-12.3247
贸	-12.3247
绞	-12.3248
刮	-12.3248
弈	-12.3248
珀	-12.3248
稻	-12.3248
缅	-12.3248
缸	-12.3248
茄	-12.3248
佐	-12.3248
抄	-12.3248
贺	-12.3248
扩	-12.3446
循	-12.3449
械	-12.3463
锡	-12.3465
佑	-12.3465
巷	-12.3465
椰	-12.3465
唇	-12.3465
熬	-12.3465
碟	-12.3465
礁	-12.3465
诡	-12.3465
辍	-12.3465
酋	-12.3465
钓	-12.3465
焰	-12.3465
熔	-12.3465
憎	-12.3465
哲	-12.3682
昨	-12.3683
邀	-12.3686
怨	-12.3687
栅	-12.3687
塘	-12.3687
渊	-12.3687
履	-12.3687
廓	-12.3687
溢	-12.3687
螨	-12.3687
捆	-12.3687
浆	-12.3687
锯	-12.3687
琢	-12.3687
耸	-12.3687
颜	-12.3913
寨	-12.3915
廷	-12.3915
卸	-12.3915
脖	-12.3915
碌	-12.3915
拟	-12.4147
脆	-12.4147
粹	-12.4147
瘤	-12.4147
陵	-12.4147
侮	-12.4147
旺	-12.4147
甩	-12.4147
匪	-12.4147
摊	-12.4147
朽	-12.4147
槽	-12.4147
幢	-12.4147
碍	-12.4385
虔	-12.4385
傲	-12.4385
勉	-12.4385
喉	-12.4385
栽	-12.4385
狄	-12.4385
盼	-12.4385
渺	-12.4385
烯	-12.4385
袜	-12.4385
阁	-12.4385
靴	-12.4385
驰	-12.4385
企	-12.4628
阱	-12.4629
坊	-12.4629
藤	-12.4629
辣	-12.4629
咸	-12.4629
嘘	-12.4629
嚼	-12.4629
挚	-12.4629
掏	-12.4629
渣	-12.4629
滨	-12.4629
炫	-12.4629
痒	-12.4629
祭	-12.4629
赎	-12.4629
铝	-12.4629
顷	-12.4629
驯	-12.4629
妒	-12.4629
扁	-12.4629
棱	-12.4629
胰	-12.4629
俱	-12.4879
拦	-12.4879
柬	-12.4879
沸	-12.4879
芝	-12.4879
奎	-12.4879
焚	-12.4879
窥	-12.4879
娶	-12.4879
秃	-12.4879
怎	-12.5134
幽	-12.5135
«	-12.5135
»	-12.5135
僧	-12.5135
闯	-12.5135
栓	-12.5135
舰	-12.5135
勘	-12.5136
舅	-12.5136
酿	-12.5136
仗	-12.5136
烘	-12.5136
碧	-12.5136
蛎	-12.5136
贬	-12.5136
溺	-12.5136
巫	-12.5136
氦	-12.5136
综	-12.5384
努	-12.5395
虹	-12.5399
拽	-12.5399
艳	-12.5399
喇	-12.5399
橘	-12.5399
玫	-12.5399
疤	-12.5399
纬	-12.5399
肘	-12.5399
逗	-12.5399
逛	-12.5399
坝	-12.5399
懈	-12.5399
於	-12.5399
獾	-12.5399
坞	-12.5399
谓	-12.566
蚊	-12.5663
寓	-12.5668
魂	-12.5669
愚	-12.5669
祷	-12.5669
贤	-12.5669
劝	-12.5669
戮	-12.5669
殴	-12.5669
逸	-12.5669
锤	-12.5669
黛	-12.5669
陡	-12.5669
瞬	-12.5945
屠	-12.5946
寸	-12.5946
─	-12.5947
刘	-12.5947
僻	-12.5947
叭	-12.5947
瞎	-12.5947
馅	-12.5947
髋	-12.5947
ç	-12.5947
哎	-12.5947
摒	-12.5947
桩	-12.5947
泻	-12.5947
掀	-12.5947
狸	-12.5947
呜	-12.6232
捣	-12.6232
叮	-12.6232
拷	-12.6232
葱	-12.6232
刃	-12.6232
槛	-12.6232
跤	-12.6232
辟	-12.6232
骇	-12.6232
哒	-12.6232
诞	-12.6522
川	-12.6526
匈	-12.6527
燕	-12.6527
妄	-12.6527
弧	-12.6527
钙	-12.6527
潘	-12.6527
逾	-12.6527
凿	-12.6527
嫌	-12.6527
孢	-12.6527
旷	-12.6527
汰	-12.6527
泼	-12.6527
诫	-12.6527
饵	-12.6527
趁	-12.6527
巅	-12.6527
昆	-12.6829
陀	-12.683
绷	-12.683
後	-12.683
毋	-12.683
汲	-12.683
谣	-12.683
鞭	-12.683
诵	-12.683
鄂	-12.683
ã	-12.683
垄	-12.683
疆	-12.683
绎	-12.683
澄	-12.683
熄	-12.683
薇	-12.683
螈	-12.683
苗	-12.7142
咳	-12.7142
恭	-12.7142
恳	-12.7142
ó	-12.7142
稠	-12.7142
芥	-12.7142
苍	-12.7142
辖	-12.7142
寡	-12.7142
搁	-12.7142
祥	-12.7142
蹲	-12.7142
铲	-12.7142
稚	-12.7142
魁	-12.7142
泳	-12.7464
睹	-12.7464
陨	-12.7465
翠	-12.7465
昧	-12.7465
柄	-12.7465
麽	-12.7465
°	-12.7465
倚	-12.7465
咯	-12.7465
梳	-12.7465
瑰	-12.7465
臣	-12.7465
袍	-12.7465
蹦	-12.7465
滤	-12.7658
赠	-12.7798
丙	-12.7798
浦	-12.7798
帘	-12.7798
拙	-12.7798
橱	-12.7798
矫	-12.7798
缪	-12.7798
淑	-12.7798
犀	-12.7798
睾	-12.7798
簿	-12.7798
萌	-12.7798
亭	-12.7798
毅	-12.7798
涅	-12.7798
疹	-12.7798
峭	-12.7798
帅	-12.7798
厉	-12.8142
杏	-12.8143
芳	-12.8143
茅	-12.8143
亥	-12.8143
煎	-12.8143
褶	-12.8143
吱	-12.8143
圭	-12.8143
汪	-12.8143
玻	-12.8143
苛	-12.8143
厢	-12.8143
迦	-12.8143
绸	-12.85
颚	-12.85
夷	-12.85
晋	-12.85
郎	-12.85
è	-12.85
侯	-12.85
匀	-12.85
咽	-12.85
奠	-12.85
拱	-12.85
昭	-12.85
枕	-12.85
鄙	-12.85
铀	-12.85
吼	-12.85
屑	-12.85
碾	-12.85
紊	-12.85
纲	-12.85
润	-12.8868
韩	-12.8868
婴	-12.8869
嘟	-12.887
祈	-12.887
矛	-12.887
徽	-12.887
暑	-12.887
沦	-12.887
孵	-12.887
帧	-12.887
恍	-12.887
噪	-12.9254
苯	-12.9255
殊	-12.9652
府	-12.9654
翰	-13.0071
邪	-13.0071
夕	-13.0072
胺	-13.0072
蹈	-13.0506
讽	-13.0506
惩	-13.0506
玉	-13.096
粮	-13.096
爵	-13.096
迅	-13.096
钮	-13.096
朋	-13.1437
翅	-13.1437
溃	-13.1437
胀	-13.1437
匿	-13.1935
摧	-13.1937
忆	-13.2461
骤	-13.3606
慧	-13.3607
盾	-13.3607
厕	-13.4225
壤	-13.4232
佣	-13.4899
芯	-13.5612
肃	-13.5613
酯	-13.5613
蝇	-13.627
擅	-13.6379
豚	-13.638
叔	-13.7216
窟	-13.7216
丈	-13.8124
嫩	-13.8125
娱	-13.9124
蔓	-13.9125
腊	-13.9125
绍	-13.9125
央	-14.021
裕	-14.0236
胁	-14.1486
咨	-14.1486
啡	-14.1486
魅	-14.2911
咖	-14.2914
睛	-14.458
励	-14.458
猩	-14.4581
憾	-14.6581
允	-14.6581
贡	-14.6581
萤	-14.9081
骄	-14.9081
蔬	-15.2414
撼	-15.2414
姻	-15.2414
膨	-15.2415
宙	-15.7414
漩	-16.7298
涸	-16.7299
扉	-16.73
谚	-16.7301
殆	-16.7302
曝	-16.7303
嘻	-16.7304
咀	-16.7305
螃	-16.7306
禧	-16.7307
惰	-16.7308
坍	-16.7309
蝾	-16.731
沛	-16.7311
栩	-16.7312
惫	-16.7313
匮	-16.7314
沥	-16.7315
捍	-16.7316
瞰	-16.7317
恻	-16.7318
驭	-16.7319
赂	-16.732
蝴	-16.7321
淆	-16.7322
牡	-16.7323
椒	-16.7324
埔	-16.7325
肮	-16.7326
恕	-16.7327
谴	-16.7328
婷	-16.7329
嘈	-16.733
豫	-16.7331
犸	-16.7332
烁	-16.7333
蠕	-16.7334
痫	-16.7335
榈	-16.7336
婪	-16.7337
坪	-16.7338
煌	-16.7339
瀑	-16.734
溉	-16.7341
蜻	-16.7342
蜓	-16.7343
痢	-16.7344
狩	-16.7345
侄	-16.7346
筝	-16.7347
匆	-16.7348
侈	-16.7349
嫉	-16.735
墟	-16.7351
畴	-16.7352
迄	-16.7353
徙	-16.7354
斐	-16.7355
譬	-16.7356
辜	-16.7357
帜	-16.7358
诠	-16.7359
骆	-16.736
抉	-16.7361
蟑	-16.7362
拇	-16.7363
屿	-16.7364
崛	-16.7365
氛	-16.7366
橄	-16.7367
榄	-16.7368
蜗	-16.7369
荐	-16.737
崭	-16.7371
韧	-16.7372
悄	-16.7373
飓	-16.7374
啸	-16.7375
蘑	-16.7376
吁	-16.7377
秩	-16.7378
痪	-16.7379
饪	-16.738
慨	-16.7381
痹	-16.7382
彗	-16.7383
尴	-16.7384
尬	-16.7385
聆	-16.7386
肪	-16.7387
侣	-16.7388
蝙	-16.7389
阐	-16.739
衷	-16.7391
牺	-16.7392
蜘	-16.7393
荧	-16.7394
骼	-16.7395
辐	-16.7396
浏	-16.7397
隶	-16.7398
葡	-16.7399
萄	-16.74
疟	-16.7401
晰	-16.7402
陌	-16.7403
践	-16.7404
苹	-16.7405
$	-16.7406
逻	-16.7407
蚂	-16.7408
拯	-16.7409
垃	-16.741
圾	-16.7411
讶	-16.7412
瑚	-16.7413
怖	-16.7414
擎	-16.7414
恢	-16.7414
啤	-16.7414
璃	-16.7415
矶	-16.7415
沮	-16.7415
础	-16.7415
